<unk>	0
<s>	0
</s>	0
.	-2.55785
▁the	-3.09795
▁and	-3.20904
,	-3.2927
▁to	-3.56502
▁a	-3.65227
▁was	-3.86006
▁he	-4.02902
▁she	-4.06189
▁it	-4.16868
▁they	-4.19633
▁"	-4.49534
▁her	-4.50961
'	-4.63834
▁said	-4.82552
▁in	-4.93463
▁his	-4.95342
▁with	-4.97183
▁you	-4.97599
s	-4.99776
▁lily	-4.99885
▁that	-5.08489
▁so	-5.10381
▁day	-5.11557
▁of	-5.1363
▁but	-5.19088
▁had	-5.23076
▁on	-5.26372
▁mom	-5.2864
▁one	-5.37545
▁for	-5.40563
▁very	-5.47235
▁there	-5.47276
!	-5.4808
▁little	-5.49664
▁time	-5.50158
▁happy	-5.55676
▁is	-5.58837
t	-5.60437
▁big	-5.60687
▁saw	-5.60816
▁not	-5.61159
."	-5.61955
▁i	-5.68984
!"	-5.69904
▁once	-5.72353
▁were	-5.72381
▁play	-5.7311
▁are	-5.8449
▁wanted	-5.85602
▁girl	-5.86313
▁upon	-5.865
▁their	-5.87173
▁him	-5.88064
▁them	-5.90928
▁have	-5.96301
▁be	-5.96716
▁up	-5.97692
▁can	-5.98597
▁tom	-5.9979
▁at	-6.00491
▁ben	-6.00829
▁go	-6.03469
▁	-6.04162
▁went	-6.04345
▁all	-6.07046
?"	-6.08554
▁friends	-6.10741
▁when	-6.12057
▁from	-6.15669
▁then	-6.18997
▁back	-6.20304
▁timmy	-6.21682
▁smiled	-6.22591
▁named	-6.22901
▁too	-6.23416
▁we	-6.2447
▁loved	-6.25227
▁asked	-6.26692
▁like	-6.26829
▁felt	-6.28979
▁could	-6.29004
▁fun	-6.29328
▁looked	-6.29684
▁around	-6.30329
▁out	-6.32952
▁what	-6.33035
▁boy	-6.36896
€	-6.38494
▁do	-6.39426
▁help	-6.3986
▁some	-6.4085
▁would	-6.41378
▁see	-6.41982
▁did	-6.42694
▁make	-6.43986
,"	-6.45063
▁together	-6.46212
▁away	-6.46493
▁started	-6.48001
▁says	-6.48085
▁ran	-6.48329
i	-6.49844
▁want	-6.50289
▁something	-6.50621
▁made	-6.50948
▁mommy	-6.51337
▁as	-6.5173
▁park	-6.53042
▁put	-6.57694
▁sad	-6.57732
▁new	-6.58425
▁home	-6.59817
▁tim	-6.61725
▁again	-6.62448
▁found	-6.62707
▁bird	-6.62966
▁playing	-6.66729
▁who	-6.673
▁other	-6.67858
▁things	-6.7036
▁liked	-6.71885
▁dad	-6.72568
▁got	-6.73898
▁excited	-6.73995
▁friend	-6.75083
▁decided	-6.75328
▁came	-6.76024
▁scared	-6.78347
▁man	-6.78355
▁down	-6.80019
▁an	-6.811
▁your	-6.82868
▁dog	-6.83791
▁will	-6.8387
▁sam	-6.84155
▁find	-6.84935
▁get	-6.85701
▁anna	-6.86147
▁max	-6.87028
▁me	-6.8734
▁always	-6.8771
▁about	-6.88682
▁took	-6.8911
▁didn	-6.90163
▁good	-6.90221
▁my	-6.90472
▁toys	-6.90612
▁outside	-6.91239
▁tree	-6.91498
▁more	-6.93048
▁this	-6.93548
▁thought	-6.96202
▁take	-6.97608
▁old	-6.98024
▁how	-6.98462
▁special	-6.98882
▁inside	-7.0004
▁knew	-7.00083
▁every	-7.01398
▁car	-7.02274
▁toy	-7.03344
▁suddenly	-7.03466
▁just	-7.04762
▁sorry	-7.07165
▁know	-7.08076
▁much	-7.08317
m	-7.08913
▁if	-7.09631
▁after	-7.09749
▁jack	-7.0991
▁look	-7.10013
▁house	-7.1016
▁into	-7.13929
▁tried	-7.14024
▁told	-7.15078
▁let	-7.15433
▁each	-7.15524
▁gave	-7.1654
▁heard	-7.16707
▁never	-7.17064
▁ball	-7.17308
▁water	-7.17712
▁no	-7.17937
â	-7.1874
▁over	-7.19491
▁couldn	-7.20317
▁room	-7.20402
▁played	-7.2093
▁proud	-7.21377
▁hugged	-7.22295
▁mia	-7.22347
▁sara	-7.23413
▁because	-7.24662
▁many	-7.25707
▁bear	-7.26128
▁nice	-7.30187
▁box	-7.30564
▁come	-7.3132
▁until	-7.3284
▁don	-7.33177
▁now	-7.34305
▁small	-7.34392
▁soon	-7.34803
▁learned	-7.35081
▁everyone	-7.35279
▁â	-7.35975
▁better	-7.36119
▁even	-7.36642
▁best	-7.38427
yes	-7.3968
▁end	-7.40148
▁eat	-7.41831
▁off	-7.42437
▁careful	-7.42444
▁garden	-7.42769
▁thanked	-7.43569
▁sky	-7.43687
▁cat	-7.43688
▁laughed	-7.43991
▁by	-7.4442
▁say	-7.46209
▁love	-7.48048
▁beautiful	-7.48511
▁long	-7.48836
▁lots	-7.48906
▁still	-7.4902
▁animals	-7.49957
▁kind	-7.51302
▁both	-7.52076
?	-7.5313
▁way	-7.53736
▁two	-7.55011
you	-7.5509
▁safe	-7.55217
▁feel	-7.5672
▁red	-7.56816
▁spot	-7.57272
▁lived	-7.57882
▁people	-7.5807
it	-7.58839
▁walked	-7.59244
▁lucy	-7.59818
▁hard	-7.60606
▁angry	-7.61034
▁family	-7.6105
▁sun	-7.6137
▁flew	-7.61737
▁called	-7.6199
▁try	-7.61996
▁loud	-7.62263
▁hurt	-7.62606
▁or	-7.62728
▁brave	-7.63151
▁kept	-7.63957
▁share	-7.64394
▁before	-7.64557
▁bad	-7.64831
▁while	-7.65097
▁going	-7.66557
▁john	-7.6727
▁pretty	-7.67317
▁noise	-7.69251
let	-7.70043
▁opened	-7.70115
▁shiny	-7.70154
▁next	-7.70163
no	-7.70338
▁should	-7.71249
▁door	-7.72665
▁run	-7.72793
▁explore	-7.72942
▁ground	-7.72954
▁also	-7.7313
what	-7.73538
▁fast	-7.73933
▁lot	-7.74222
▁idea	-7.74253
▁hug	-7.74614
▁feeling	-7.75331
▁give	-7.75666
▁nodded	-7.75914
▁keep	-7.76173
▁picked	-7.77305
▁walking	-7.77651
▁has	-7.78969
▁its	-7.79111
▁smile	-7.80881
▁being	-7.80908
▁need	-7.81414
▁mum	-7.81506
▁finally	-7.81598
▁show	-7.82646
thank	-7.8396
▁looking	-7.8446
that	-7.84562
▁food	-7.85083
▁eyes	-7.85938
▁stopped	-7.86198
▁blue	-7.86611
▁great	-7.8858
▁ever	-7.88784
▁hand	-7.89076
▁bob	-7.89163
▁sue	-7.89601
▁clean	-7.89712
▁forest	-7.89773
▁noticed	-7.89924
▁flowers	-7.8999
▁hands	-7.90621
▁where	-7.91128
we	-7.91674
▁fish	-7.92
▁important	-7.92143
▁slide	-7.9227
▁replied	-7.93175
▁okay	-7.93614
▁showed	-7.94064
▁listen	-7.94228
▁rabbit	-7.95441
▁sarah	-7.95515
▁right	-7.95558
▁truck	-7.96391
▁watched	-7.9644
▁stay	-7.96713
▁voice	-7.97391
re	-7.97568
▁sure	-7.97642
▁quickly	-7.97804
▁been	-7.979
▁goodbye	-7.98476
▁here	-8.00031
▁jane	-8.00325
▁bed	-8.004
▁different	-8.00424
▁face	-8.00704
▁place	-8.00854
▁daddy	-8.00983
▁walk	-8.01094
▁became	-8.01219
▁first	-8.01611
look	-8.01731
▁work	-8.0187
▁high	-8.01963
▁closer	-8.02503
▁our	-8.04063
▁head	-8.0431
▁curious	-8.04552
▁fly	-8.04578
▁store	-8.04958
▁why	-8.04982
▁three	-8.05577
▁cake	-8.06427
▁grandma	-8.07084
▁anymore	-8.07624
▁mean	-8.07794
▁bunny	-8.0796
▁lila	-8.08094
▁use	-8.09302
can	-8.09501
▁only	-8.09814
▁doll	-8.09886
▁strong	-8.09976
▁grabbed	-8.10191
▁wait	-8.11075
▁boat	-8.11309
▁fell	-8.1147
▁us	-8.1194
▁night	-8.11977
▁adventure	-8.12468
▁jumped	-8.12732
▁warm	-8.13035
▁kitchen	-8.13295
▁glad	-8.13492
▁helped	-8.14132
▁does	-8.14238
▁birds	-8.15427
▁happened	-8.1602
▁joe	-8.164
▁cry	-8.16789
▁shouted	-8.17043
▁dress	-8.17394
▁book	-8.17405
▁story	-8.17468
▁yummy	-8.18303
▁reached	-8.18361
▁realized	-8.18504
▁grass	-8.19334
▁tommy	-8.19393
▁having	-8.1944
▁bright	-8.1961
▁rock	-8.19933
▁please	-8.20058
▁game	-8.20372
▁favorite	-8.20426
▁bit	-8.20783
▁open	-8.20953
▁sees	-8.20995
▁ate	-8.21169
▁watch	-8.21255
▁thing	-8.21609
▁ready	-8.21693
▁am	-8.21785
▁through	-8.21972
▁stop	-8.2222
▁really	-8.22266
▁began	-8.23015
▁learn	-8.23298
▁lady	-8.23385
▁world	-8.23416
▁himself	-8.24108
▁done	-8.24687
▁making	-8.24843
▁coming	-8.25323
▁mouse	-8.25351
▁pond	-8.25374
▁kids	-8.25453
▁waved	-8.26075
▁thank	-8.26141
▁looks	-8.26149
▁near	-8.26405
▁tired	-8.26749
▁name	-8.27142
▁flower	-8.27285
▁than	-8.27326
wow	-8.27852
▁sometimes	-8.28259
▁worry	-8.28338
▁under	-8.28786
▁maybe	-8.2894
▁funny	-8.28943
▁another	-8.2923
▁used	-8.29374
▁sally	-8.29482
▁seen	-8.29537
▁cars	-8.29597
▁top	-8.30005
▁parents	-8.30143
▁hopped	-8.30594
▁cried	-8.30671
▁doing	-8.30687
▁daisy	-8.3074
▁surprise	-8.30986
▁green	-8.31047
▁blocks	-8.31078
▁think	-8.32435
▁care	-8.32485
▁touch	-8.3258
▁soft	-8.32803
▁brother	-8.33503
▁catch	-8.33673
▁floor	-8.33755
▁lesson	-8.34061
▁behind	-8.343
▁full	-8.34457
▁running	-8.34599
▁years	-8.346
".	-8.34638
▁pick	-8.34719
▁worked	-8.34776
▁paper	-8.35235
▁yellow	-8.35636
▁wished	-8.35755
hello	-8.35843
▁happily	-8.36427
▁trees	-8.37195
▁surprised	-8.3728
▁baby	-8.37443
don	-8.37628
▁carefully	-8.37808
▁butterfly	-8.37909
▁teddy	-8.38224
tms	-8.38879
▁benny	-8.38888
▁ice	-8.38978
▁hole	-8.38993
▁remembered	-8.38997
▁lost	-8.38998
▁held	-8.39126
▁tell	-8.40222
▁needed	-8.4043
▁cold	-8.40992
▁likes	-8.41309
▁dark	-8.41721
▁cool	-8.41983
▁left	-8.42038
▁anything	-8.4259
▁hear	-8.42621
▁picture	-8.42785
▁sat	-8.42812
▁enjoyed	-8.43123
▁billy	-8.43143
▁wrong	-8.43222
▁buy	-8.43519
▁move	-8.4355
▁followed	-8.44105
▁sound	-8.44225
ll	-8.4439
▁children	-8.44474
▁delicious	-8.44882
▁hat	-8.45379
▁finished	-8.45611
▁friendly	-8.45822
▁frog	-8.45915
▁close	-8.46119
▁molly	-8.46392
▁someone	-8.46403
▁herself	-8.46404
▁everywhere	-8.48388
▁arrived	-8.48436
▁rain	-8.4872
▁window	-8.48736
▁else	-8.48788
▁wonderful	-8.48829
▁table	-8.48853
▁own	-8.48968
▁amy	-8.49189
▁wind	-8.49406
▁swing	-8.49773
▁colors	-8.50551
▁broken	-8.50931
▁read	-8.51141
▁able	-8.51256
▁gone	-8.51379
▁sweet	-8.51666
▁climb	-8.51982
▁filled	-8.52528
▁yes	-8.5276
▁agreed	-8.53075
▁everything	-8.53378
▁stick	-8.5339
▁continued	-8.5383
▁books	-8.53874
▁hill	-8.53979
▁bag	-8.54108
▁tall	-8.54116
▁lion	-8.5454
▁pink	-8.54557
▁later	-8.55617
▁leaves	-8.55863
▁jump	-8.55928
▁enough	-8.56053
▁any	-8.5652
▁morning	-8.57099
▁understand	-8.57206
▁ask	-8.57469
▁far	-8.58321
▁getting	-8.58351
▁cookies	-8.58784
▁hot	-8.58979
▁stayed	-8.58997
▁mother	-8.6011
▁fire	-8.60143
▁laugh	-8.60281
▁wants	-8.60328
▁beach	-8.6038
▁hair	-8.60415
▁forgot	-8.60555
▁scary	-8.6073
▁dinner	-8.60843
▁few	-8.60972
▁set	-8.61336
▁hungry	-8.61495
▁turned	-8.61504
▁mess	-8.61853
▁joy	-8.62602
▁trying	-8.62687
▁mama	-8.6282
▁castle	-8.62868
▁amazing	-8.62919
▁squirrel	-8.63606
oh	-8.63736
▁climbed	-8.63951
▁today	-8.64403
▁white	-8.64661
▁pictures	-8.65169
▁listened	-8.65525
▁air	-8.65531
▁cream	-8.659
▁moment	-8.66588
▁fix	-8.66612
▁wet	-8.6665
▁alone	-8.66765
▁jill	-8.66799
▁puppy	-8.66831
▁talk	-8.66869
▁clothes	-8.67213
▁smiles	-8.67264
▁rest	-8.67367
▁leave	-8.67696
▁brought	-8.68219
▁others	-8.6834
▁light	-8.68466
▁duck	-8.6854
▁strange	-8.68629
▁fox	-8.69079
▁makes	-8.69664
▁woods	-8.69953
▁pulled	-8.70135
▁tail	-8.7015
▁ride	-8.70289
▁moral	-8.70326
▁won	-8.70686
ok	-8.7123
▁asks	-8.72123
this	-8.72229
but	-8.72316
▁wasn	-8.73213
▁might	-8.7327
▁amazed	-8.73863
▁waited	-8.7421
▁hide	-8.74617
▁towards	-8.74734
▁fluffy	-8.75599
▁flying	-8.7605
▁owner	-8.76406
▁silly	-8.76599
▁perfect	-8.77083
▁shared	-8.77137
▁slowly	-8.7733
▁sing	-8.77861
▁living	-8.78028
▁lake	-8.78257
▁promised	-8.78426
▁pretend	-8.78786
▁runs	-8.79142
maybe	-8.79172
▁draw	-8.79198
▁job	-8.79333
▁deep	-8.79581
okay	-8.80079
▁wear	-8.80374
▁race	-8.80507
▁thinks	-8.80516
▁party	-8.80616
▁mary	-8.80756
▁money	-8.80899
▁sand	-8.81481
▁worried	-8.81684
▁dance	-8.82139
▁faster	-8.82388
▁colorful	-8.82517
mom	-8.82638
▁pieces	-8.83389
▁broke	-8.83649
▁such	-8.83968
▁grateful	-8.83969
▁monster	-8.84211
▁bigger	-8.84216
▁train	-8.84355
▁brown	-8.84696
▁candy	-8.84762
▁farmer	-8.848
▁visit	-8.85114
d	-8.8577
hi	-8.86521
▁sit	-8.86663
▁bike	-8.86743
▁magical	-8.86861
▁sister	-8.87147
▁dangerous	-8.87622
▁cut	-8.87675
▁side	-8.87681
▁across	-8.87937
▁helping	-8.87946
▁music	-8.87974
▁most	-8.88017
why	-8.88406
▁princess	-8.88419
▁join	-8.88593
▁sleep	-8.88609
▁smart	-8.88746
▁remember	-8.88872
▁dragon	-8.8943
sure	-8.90131
▁jimmy	-8.90174
▁words	-8.90473
▁tower	-8.90493
▁met	-8.91064
▁tight	-8.91074
▁reach	-8.91139
▁bite	-8.91153
▁river	-8.91155
▁stepped	-8.91411
▁heavy	-8.91462
▁threw	-8.91473
▁bug	-8.91547
▁field	-8.91585
▁dirty	-8.91964
▁believe	-8.92135
▁twins	-8.92171
▁same	-8.92196
▁crying	-8.92249
▁wall	-8.92403
▁dolls	-8.92759
tmt	-8.92786
mommy	-8.93437
▁closed	-8.94249
▁balloon	-8.94443
▁song	-8.94601
▁start	-8.94668
▁turn	-8.94858
▁stuck	-8.95059
▁school	-8.95541
▁without	-8.95583
▁quiet	-8.95618
▁bowl	-8.96283
▁hoped	-8.96514
▁must	-8.96578
▁eating	-8.96578
▁fairy	-8.96997
▁emma	-8.97059
▁swim	-8.97687
▁mouth	-8.97695
▁wouldn	-8.97918
▁welcome	-8.97918
▁course	-8.97973
▁clapped	-8.98
▁black	-8.98342
▁gentle	-8.98749
▁town	-8.99107
▁eventually	-8.99182
▁paint	-8.99893
▁doctor	-8.99921
▁mummy	-9.00082
▁drove	-9.0009
▁feels	-9.00096
▁pushed	-9.00391
▁break	-9.00696
▁higher	-9.0083
▁animal	-9.00951
▁blanket	-9.01169
▁along	-9.01536
▁piece	-9.02656
▁swings	-9.02925
▁child	-9.03202
▁cheered	-9.03515
▁yard	-9.0354
▁wings	-9.03818
▁explained	-9.03884
▁longer	-9.03909
▁treasure	-9.04185
▁teacher	-9.04194
▁pet	-9.04623
▁magic	-9.04911
▁games	-9.04945
▁well	-9.05226
▁late	-9.05291
▁bee	-9.0535
▁sang	-9.05669
▁enjoy	-9.05676
▁sign	-9.05806
▁stories	-9.06838
▁singing	-9.06945
▁instead	-9.06995
▁build	-9.06999
▁tiny	-9.07102
▁apple	-9.07306
▁shoes	-9.07307
▁turns	-9.07351
▁owl	-9.0765
▁mine	-9.0773
▁monkey	-9.07904
ing	-9.07972
▁noises	-9.08225
▁upset	-9.08359
▁fence	-9.08504
▁dry	-9.08535
▁lonely	-9.08552
▁hugs	-9.08812
▁hold	-9.09
▁young	-9.09245
▁adventures	-9.09411
▁wish	-9.09518
▁pocket	-9.09953
▁year	-9.10015
▁fight	-9.10293
▁nearby	-9.10308
▁wise	-9.1041
▁exploring	-9.10468
▁shook	-9.10549
▁jar	-9.10592
▁soup	-9.10629
▁star	-9.10676
▁moved	-9.10716
▁lunch	-9.10857
▁naughty	-9.11222
▁sammy	-9.11467
do	-9.11875
▁stars	-9.11944
▁taking	-9.11951
▁sunny	-9.12228
▁sea	-9.12271
▁caught	-9.12372
▁forget	-9.12607
▁nothing	-9.12912
▁backyard	-9.12914
▁purple	-9.12955
▁seemed	-9.13029
▁chair	-9.13183
▁street	-9.13238
▁dropped	-9.13429
▁heart	-9.13431
▁orange	-9.1352
▁though	-9.1353
▁whenever	-9.14236
▁swam	-9.14346
▁rocks	-9.14856
▁nap	-9.14977
▁hit	-9.15754
▁shapes	-9.15885
▁sitting	-9.1622
▁woke	-9.16434
▁bench	-9.16586
▁nose	-9.16995
▁snow	-9.17034
▁ok	-9.1712
▁busy	-9.17229
▁real	-9.17273
▁wondered	-9.17291
▁daughter	-9.17375
▁farm	-9.17457
▁juice	-9.1755
▁kite	-9.17663
▁sounds	-9.18252
▁holding	-9.18466
▁mad	-9.18505
lily	-9.18526
▁lucky	-9.18927
"	-9.19137
▁nest	-9.19625
▁birthday	-9.19669
▁pull	-9.19757
of	-9.19894
▁basket	-9.19977
▁arms	-9.20017
▁fit	-9.20541
▁elephant	-9.20544
▁secret	-9.20766
▁branch	-9.2092
▁key	-9.2092
▁relieved	-9.21009
▁follow	-9.21144
▁afraid	-9.21299
▁forever	-9.21649
▁mr	-9.21665
▁gift	-9.21851
▁fall	-9.21925
▁promise	-9.21996
▁bring	-9.22011
▁cute	-9.22017
▁hello	-9.22542
▁bucket	-9.22872
▁dream	-9.2327
▁huge	-9.23615
▁comes	-9.23793
▁cheese	-9.23897
▁touched	-9.23937
▁jenny	-9.23956
▁rainbow	-9.2415
▁takes	-9.24664
▁round	-9.24779
▁sick	-9.24985
▁exciting	-9.25107
▁driver	-9.25293
▁pot	-9.2547
▁laughing	-9.25537
▁onto	-9.25628
▁drink	-9.25688
hey	-9.26385
▁life	-9.26713
▁journey	-9.27268
▁bush	-9.27271
▁sunshine	-9.27524
▁swimming	-9.27612
▁bread	-9.27746
▁cozy	-9.27879
▁treat	-9.27975
▁bottle	-9.28001
▁king	-9.28034
▁honey	-9.28045
▁cave	-9.28393
▁milk	-9.2887
▁emily	-9.28884
▁watching	-9.28929
▁plan	-9.29577
▁accidentally	-9.29823
▁mark	-9.29837
▁hope	-9.30184
▁jim	-9.30658
▁sharp	-9.30799
▁grow	-9.31121
▁talked	-9.31141
▁pointed	-9.3142
▁smiling	-9.31666
▁anyone	-9.32339
▁bought	-9.32388
▁searched	-9.327
▁mittens	-9.32764
ed	-9.32884
▁jen	-9.34024
▁apples	-9.34156
▁plane	-9.34672
▁gives	-9.34869
the	-9.34875
▁win	-9.34906
▁woman	-9.35454
▁interesting	-9.35638
▁pile	-9.35771
▁healthy	-9.35889
▁wide	-9.35929
▁tasty	-9.36232
come	-9.37272
▁ducks	-9.37305
▁free	-9.37335
▁rope	-9.37434
▁crayons	-9.37562
▁clever	-9.37633
▁clouds	-9.37828
▁rose	-9.3799
▁snowman	-9.3811
▁person	-9.38248
▁shining	-9.38469
▁button	-9.38497
▁smelled	-9.3869
▁front	-9.38737
▁storm	-9.39005
▁snack	-9.3914
▁bow	-9.39668
▁spotted	-9.39737
▁which	-9.39774
▁grandpa	-9.39911
▁fair	-9.39913
▁screamed	-9.39937
▁loves	-9.39993
▁trouble	-9.40028
▁arm	-9.40075
▁jake	-9.40099
▁mud	-9.4032
▁coat	-9.40709
▁road	-9.40834
▁danced	-9.40981
▁spoon	-9.41238
▁snake	-9.41384
▁appeared	-9.41799
▁patient	-9.41854
▁cup	-9.4225
▁shop	-9.42385
▁horse	-9.42988
▁gently	-9.43048
▁asleep	-9.43148
▁lovely	-9.43316
▁giant	-9.43326
▁path	-9.43419
▁wearing	-9.43724
▁goes	-9.44506
▁whole	-9.44585
▁confused	-9.44952
▁corner	-9.44989
y	-9.45175
▁fruit	-9.45451
▁matter	-9.45487
▁answer	-9.45589
▁tries	-9.46319
▁lisa	-9.46434
▁dirt	-9.46881
▁phone	-9.46924
▁places	-9.47026
▁rolled	-9.47067
▁sharing	-9.47088
▁tasted	-9.47157
▁forgive	-9.47163
▁rude	-9.47343
▁ocean	-9.47503
▁machine	-9.47573
▁wild	-9.47965
▁spider	-9.48314
▁cookie	-9.48563
▁spent	-9.48586
▁teeth	-9.48688
▁furry	-9.48977
my	-9.49378
▁true	-9.49421
▁oven	-9.49442
▁pretended	-9.50052
▁feet	-9.50397
▁kitty	-9.50829
▁fighting	-9.50879
▁picnic	-9.50951
▁problem	-9.50961
▁last	-9.50974
▁wave	-9.51046
▁throw	-9.51192
good	-9.51309
▁tomorrow	-9.51349
▁cow	-9.51583
▁peter	-9.51725
▁helpful	-9.52261
▁zoo	-9.52352
▁smell	-9.52503
▁talking	-9.52969
▁drive	-9.53142
▁village	-9.53311
▁slow	-9.5359
▁these	-9.53768
▁ladder	-9.53876
▁write	-9.53992
▁faces	-9.54166
▁coin	-9.5432
▁building	-9.54407
▁happen	-9.5444
▁couch	-9.54541
▁push	-9.54693
▁call	-9.54698
▁part	-9.54716
please	-9.54718
▁trip	-9.55086
▁calm	-9.55425
▁fur	-9.55681
▁blew	-9.5585
▁chased	-9.55868
▁wore	-9.55935
▁knee	-9.56264
▁grab	-9.56512
▁puddle	-9.56573
▁treats	-9.56612
▁bugs	-9.56704
▁hiding	-9.56712
▁shy	-9.56927
▁pool	-9.5703
▁waiting	-9.57044
a	-9.57175
▁mind	-9.57393
▁finish	-9.57558
▁shelf	-9.57561
▁chocolate	-9.57802
▁string	-9.58279
▁taste	-9.58304
▁sack	-9.5841
▁cannot	-9.58767
▁songs	-9.59153
▁large	-9.59224
▁hop	-9.59256
▁smooth	-9.59327
▁selfish	-9.59416
▁lay	-9.59539
▁letter	-9.59801
▁carrot	-9.59811
▁stone	-9.59813
▁fixed	-9.60221
▁barked	-9.60408
▁count	-9.60746
▁leaf	-9.60802
▁line	-9.60829
▁wash	-9.60887
▁plant	-9.61158
▁cloth	-9.61165
▁spread	-9.61213
▁splash	-9.61794
▁cloud	-9.61907
▁robot	-9.62079
▁forward	-9.62236
▁jungle	-9.62413
▁meet	-9.62546
▁color	-9.62915
▁missed	-9.63206
▁land	-9.63547
▁jumping	-9.63608
▁hid	-9.63663
▁creature	-9.63686
▁necklace	-9.63721
▁peaceful	-9.6373
▁embarrassed	-9.63823
tom	-9.63824
▁gray	-9.63873
▁seat	-9.63883
▁landed	-9.63936
▁kiss	-9.63971
▁johnny	-9.64105
▁tidy	-9.64212
▁neighbor	-9.64243
▁bus	-9.64485
▁alice	-9.64533
▁carry	-9.6478
▁shirt	-9.64811
▁tv	-9.65005
▁tea	-9.65248
▁creative	-9.65438
▁bell	-9.65479
▁teach	-9.65502
▁moon	-9.65892
▁knocked	-9.66043
▁carrots	-9.66213
▁stood	-9.66341
▁whistle	-9.66486
▁plate	-9.66558
▁tightly	-9.66788
▁almost	-9.66925
▁ashamed	-9.67028
▁hears	-9.67314
▁sticks	-9.6754
▁protect	-9.67599
▁grew	-9.67656
▁legs	-9.6771
▁empty	-9.67836
▁miss	-9.68185
▁honest	-9.6831
▁meadow	-9.68725
▁save	-9.68872
▁understood	-9.68886
▁days	-9.69076
▁sheep	-9.69125
▁carried	-9.69243
▁hours	-9.6926
▁meant	-9.69353
where	-9.69426
▁disappointed	-9.69562
▁yelled	-9.69673
▁tells	-9.70327
▁prince	-9.70332
▁kitten	-9.70521
▁stand	-9.70525
▁ant	-9.70902
▁crab	-9.70908
▁sparkly	-9.71169
▁bath	-9.7117
▁breath	-9.71176
▁sail	-9.71349
▁nods	-9.71376
▁band	-9.71439
▁snacks	-9.71579
▁hospital	-9.71981
▁standing	-9.72073
▁leo	-9.72111
▁wolf	-9.7215
▁poor	-9.72493
▁cook	-9.72531
▁generous	-9.72626
▁hidden	-9.72771
▁knowing	-9.72797
▁pizza	-9.72922
▁present	-9.72927
▁mountain	-9.72932
▁taught	-9.72934
stop	-9.7318
▁bored	-9.73276
▁scarf	-9.73642
▁returned	-9.73762
▁easy	-9.73774
▁minutes	-9.73855
▁polite	-9.73884
▁bedroom	-9.74066
▁mysterious	-9.74178
▁rex	-9.74378
▁sighed	-9.74567
▁frustrated	-9.74694
▁plants	-9.74695
▁puzzle	-9.74834
▁waves	-9.75004
▁determined	-9.75289
▁thankful	-9.75325
▁powerful	-9.75486
▁finger	-9.75487
▁spicy	-9.75543
▁sleepy	-9.75612
▁bridge	-9.75871
▁drew	-9.76037
▁shore	-9.76059
▁sandwich	-9.76177
▁passed	-9.76199
▁grumpy	-9.76301
▁sour	-9.76402
▁fancy	-9.76439
▁susie	-9.76531
▁group	-9.76664
▁worm	-9.76692
are	-9.76725
▁messy	-9.76802
▁gate	-9.77142
▁tears	-9.77354
▁ship	-9.77588
▁kissed	-9.7773
▁lock	-9.77877
▁closet	-9.7798
▁gathered	-9.78168
▁ring	-9.783
sorry	-9.78374
▁zoom	-9.78576
▁bubbles	-9.78799
▁yourself	-9.79195
▁wood	-9.79387
▁chest	-9.79389
▁answered	-9.79484
▁often	-9.79512
▁cries	-9.79714
▁scissors	-9.79773
▁pig	-9.80033
▁block	-9.80065
▁hopping	-9.80296
▁working	-9.80309
▁ugly	-9.80696
▁deer	-9.80853
▁caterpillar	-9.81017
▁lit	-9.81735
▁excitement	-9.81976
▁expensive	-9.82245
▁middle	-9.8237
▁saved	-9.82464
▁taken	-9.82633
▁mix	-9.82941
▁mail	-9.82984
▁vase	-9.83173
▁wagged	-9.83309
▁pleased	-9.83419
▁leg	-9.83609
▁card	-9.8374
▁boring	-9.8397
ben	-9.84194
▁tie	-9.84239
▁net	-9.84287
▁sugar	-9.84512
▁queen	-9.84526
▁asking	-9.84539
▁nervous	-9.84728
▁spin	-9.84772
▁brush	-9.8485
▁mistake	-9.85058
▁bobby	-9.85189
▁roll	-9.8524
▁dancing	-9.8534
▁cage	-9.85372
▁rocket	-9.85436
▁glass	-9.85481
▁vegetables	-9.85487
▁giggled	-9.85591
▁especially	-9.8587
▁comfortable	-9.86523
▁seek	-9.86602
▁packed	-9.86651
▁police	-9.8702
▁number	-9.87085
▁lying	-9.87115
▁picks	-9.87278
▁glue	-9.87328
▁sweetie	-9.87417
▁pain	-9.87817
who	-9.87887
▁shell	-9.87931
▁fake	-9.87937
▁roar	-9.87981
▁medicine	-9.88035
▁feed	-9.88251
▁bone	-9.88387
▁drawing	-9.8846
▁eggs	-9.88732
▁distance	-9.88798
▁fruits	-9.8885
now	-9.89008
▁bake	-9.89053
▁change	-9.89145
▁mandy	-9.89288
▁splashed	-9.89324
▁moving	-9.89349
▁crown	-9.89459
▁smelly	-9.89832
▁disappeared	-9.89886
▁tent	-9.9002
▁become	-9.90094
▁lose	-9.90152
▁father	-9.90425
▁feathers	-9.90641
▁lazy	-9.90917
▁licked	-9.90985
▁calling	-9.91102
▁penny	-9.91304
▁playground	-9.91411
▁bathroom	-9.91434
▁pete	-9.91521
▁test	-9.91585
▁elderly	-9.91632
▁mirror	-9.91894
▁rich	-9.92174
▁body	-9.92195
▁respect	-9.92392
▁pay	-9.92702
▁nod	-9.92929
▁wrote	-9.92959
▁questions	-9.93262
▁tape	-9.93266
▁noisy	-9.93286
▁tiger	-9.93318
▁match	-9.93516
▁walks	-9.93609
▁skipped	-9.93875
▁gun	-9.94465
▁famous	-9.94703
▁fill	-9.94705
▁lamp	-9.94882
▁ruined	-9.94986
▁ellie	-9.94987
▁eager	-9.95118
▁incredible	-9.95309
▁drank	-9.95317
▁pillow	-9.95529
▁stones	-9.95699
▁juicy	-9.95713
▁live	-9.95825
▁covered	-9.95993
▁flag	-9.96119
▁sailed	-9.96154
▁decide	-9.96176
▁weak	-9.96671
▁rare	-9.967
▁discovered	-9.96804
well	-9.96927
▁realised	-9.96928
help	-9.96945
▁eye	-9.96966
▁joke	-9.97428
▁chicken	-9.97434
▁towel	-9.97564
e	-9.97579
▁ella	-9.97629
▁measure	-9.97811
▁balance	-9.97858
▁loyal	-9.97885
▁branches	-9.98112
▁bella	-9.9828
▁cleaned	-9.98295
▁coins	-9.98323
▁clown	-9.98441
▁butter	-9.98625
▁map	-9.98725
▁fine	-9.98828
▁barn	-9.98831
▁adventurous	-9.99001
▁clear	-9.99085
▁offered	-9.99228
▁mighty	-9.9927
▁sadly	-9.99352
▁pie	-9.99433
▁wheel	-9.99578
▁lifted	-9.99623
▁tag	-9.99698
▁colourful	-9.99703
▁dig	-9.99923
▁cross	-9.99934
▁unique	-10.0019
▁difficult	-10.0027
▁hose	-10.0032
▁soap	-10.0043
▁organized	-10.0051
▁bottom	-10.0064
▁happening	-10.0076
▁board	-10.0085
▁smoke	-10.0089
▁island	-10.0089
▁gets	-10.009
▁knife	-10.0095
▁weird	-10.0096
▁neck	-10.0111
▁learning	-10.0124
▁content	-10.0131
▁fred	-10.014
▁kindness	-10.0143
▁shows	-10.0162
go	-10.0163
▁word	-10.0168
▁wonder	-10.0176
▁garage	-10.0182
▁bobo	-10.0183
be	-10.0186
▁circle	-10.0192
▁managed	-10.0193
▁kid	-10.0209
▁bald	-10.0229
▁knight	-10.024
▁chase	-10.0242
▁jealous	-10.0263
▁shake	-10.0266
▁aunt	-10.0271
▁birdie	-10.0276
▁crawled	-10.0286
▁thin	-10.0293
▁saying	-10.0295
▁berries	-10.0302
▁figure	-10.031
▁tough	-10.032
▁dizzy	-10.0329
▁needs	-10.0337
▁whale	-10.0339
▁mrs	-10.034
▁edge	-10.0351
▁search	-10.0357
▁may	-10.0362
▁pointing	-10.0367
▁extra	-10.0374
▁wand	-10.0378
▁drum	-10.0394
▁dinosaur	-10.0394
▁turtle	-10.04
▁uncle	-10.0411
▁louder	-10.043
▁lift	-10.0432
▁choose	-10.0441
▁added	-10.0442
▁spun	-10.045
▁guitar	-10.046
▁favourite	-10.0462
▁already	-10.0474
▁harder	-10.0474
▁tweety	-10.0478
▁unusual	-10.0478
▁foot	-10.048
▁balloons	-10.0486
▁thick	-10.0526
▁enjoying	-10.053
me	-10.0536
▁dogs	-10.0548
▁sword	-10.0565
▁cheerful	-10.0571
▁belonged	-10.0595
▁giving	-10.0605
▁trunk	-10.0605
▁wrapped	-10.0609
▁impressed	-10.0613
here	-10.062
▁excitedly	-10.0622
▁banana	-10.0636
▁normal	-10.0661
▁four	-10.0665
▁pen	-10.0666
▁paw	-10.0671
▁team	-10.0706
▁market	-10.0716
▁bossy	-10.0718
▁check	-10.0735
▁escape	-10.0736
▁loudly	-10.0737
▁swan	-10.0744
▁boxes	-10.0773
▁zip	-10.078
▁proudly	-10.0781
▁balls	-10.0785
▁painting	-10.0789
▁wake	-10.0789
▁ears	-10.079
▁belong	-10.0802
▁step	-10.0815
▁frightened	-10.0833
▁against	-10.0845
▁dreamed	-10.0847
▁invited	-10.087
▁circles	-10.0874
▁log	-10.0876
▁brilliant	-10.0891
▁space	-10.0893
▁yours	-10.0909
▁trust	-10.0909
▁ow	-10.0916
▁hats	-10.0922
▁buttons	-10.0928
▁happiness	-10.0944
▁crayon	-10.0962
▁safely	-10.0963
▁hurts	-10.0978
▁ancient	-10.0979
▁clay	-10.0983
▁laughs	-10.0985
▁slipped	-10.0988
▁valuable	-10.103
▁sight	-10.1038
▁breakfast	-10.1045
▁successful	-10.1059
▁those	-10.1059
▁grown	-10.106
▁shout	-10.1063
▁clap	-10.1072
▁shape	-10.1095
▁foolish	-10.1102
▁lola	-10.1102
▁ear	-10.111
▁fridge	-10.1116
▁notice	-10.1118
▁skin	-10.1131
▁movie	-10.1132
▁fat	-10.1136
▁stubborn	-10.1137
▁rough	-10.1146
▁nemo	-10.1147
▁wagon	-10.1148
▁trucks	-10.1162
▁nicely	-10.1192
▁nosy	-10.1206
▁brothers	-10.1221
▁son	-10.1222
▁city	-10.123
▁kick	-10.124
▁borrow	-10.1258
▁office	-10.1263
▁walls	-10.1268
▁dreams	-10.1272
▁delicate	-10.1278
▁icy	-10.1287
▁collect	-10.1292
▁falls	-10.131
▁bounce	-10.1314
▁suggested	-10.1332
▁dead	-10.134
▁horn	-10.1369
▁exclaimed	-10.1386
▁wiped	-10.1405
▁mixed	-10.1406
▁useful	-10.1421
▁gold	-10.1423
▁patch	-10.1428
▁stove	-10.1428
▁fierce	-10.143
▁poured	-10.1431
▁egg	-10.1435
▁locked	-10.1456
▁sounded	-10.1469
▁means	-10.1476
▁shells	-10.1477
▁jam	-10.1478
▁tools	-10.1489
▁explored	-10.151
▁goat	-10.1532
▁dave	-10.1545
▁using	-10.1566
▁above	-10.1595
▁fountain	-10.1605
▁ducky	-10.1606
▁george	-10.1642
▁print	-10.1647
▁witch	-10.1651
▁showing	-10.1657
▁themselves	-10.1662
▁spoiled	-10.1666
▁stumbled	-10.1668
▁bushes	-10.1669
▁obedient	-10.1689
▁lights	-10.1699
▁clock	-10.17
▁dough	-10.17
▁jog	-10.1705
▁smaller	-10.1707
▁parrot	-10.1709
▁spinning	-10.1725
▁dependable	-10.1726
▁fragile	-10.1727
▁playful	-10.1761
▁act	-10.1781
▁jolly	-10.1788
▁raced	-10.1792
▁delighted	-10.1801
▁practice	-10.1801
▁fingers	-10.1808
▁rode	-10.181
▁bill	-10.1823
▁brightly	-10.1834
▁sauce	-10.1847
▁enormous	-10.1863
▁admired	-10.1882
▁hero	-10.1894
▁built	-10.1896
▁thoughtful	-10.1912
▁counted	-10.1914
▁roof	-10.1915
▁kicked	-10.1915
▁ann	-10.1916
▁changed	-10.1937
▁cleaning	-10.194
▁shone	-10.1946
▁bags	-10.1957
▁original	-10.1958
▁solve	-10.1977
▁bitter	-10.1981
▁reminded	-10.1983
▁beak	-10.1987
▁independent	-10.1988
▁pan	-10.1996
▁dove	-10.2003
▁cone	-10.2005
▁popcorn	-10.2007
▁mike	-10.2013
▁pass	-10.2019
▁hammer	-10.2027
▁handed	-10.2056
▁whispered	-10.2061
▁chose	-10.2071
▁yet	-10.2074
▁bees	-10.208
▁allowed	-10.2085
▁stronger	-10.2094
▁toby	-10.2095
▁shark	-10.2104
▁spend	-10.2111
▁spray	-10.2112
▁tummy	-10.2113
▁hairy	-10.2115
▁terrible	-10.2129
▁pumpkin	-10.2133
how	-10.2165
▁painted	-10.2169
▁cart	-10.2171
▁wrap	-10.2172
▁unknown	-10.2173
▁finding	-10.2183
▁pencil	-10.2199
▁salad	-10.2215
ly	-10.2217
▁scream	-10.2229
▁power	-10.2235
▁scare	-10.2242
▁dolphin	-10.2252
▁toast	-10.2255
▁leaving	-10.2268
▁joined	-10.2268
▁picking	-10.2269
▁gasped	-10.2269
▁tank	-10.2298
▁reliable	-10.23
▁metal	-10.2305
letâ	-10.2305
▁joey	-10.2314
▁thinking	-10.2316
▁angel	-10.2323
▁pirate	-10.2334
▁barber	-10.2339
▁sink	-10.2342
▁delight	-10.2353
▁goose	-10.2363
▁stream	-10.2366
▁doesn	-10.237
▁kinds	-10.238
▁view	-10.2388
see	-10.2417
if	-10.2427
▁forth	-10.2432
▁modern	-10.2449
▁advice	-10.2455
▁march	-10.2479
▁create	-10.2499
▁sleeping	-10.251
▁clumsy	-10.2515
▁yarn	-10.2517
▁spaghetti	-10.2521
▁week	-10.2538
ow	-10.255
▁serious	-10.2552
▁hay	-10.2555
▁wealthy	-10.2559
▁friendship	-10.2559
▁stupid	-10.256
▁add	-10.257
▁searching	-10.2579
▁cover	-10.2579
▁nature	-10.2592
▁rushed	-10.2595
▁guilty	-10.2605
▁telling	-10.2609
▁stairs	-10.2613
▁knows	-10.2616
▁camera	-10.2629
▁kim	-10.2642
▁boys	-10.2689
▁half	-10.2694
n	-10.2699
▁boats	-10.2701
▁crazy	-10.2708
▁polly	-10.2718
and	-10.2725
▁houses	-10.2728
▁nobody	-10.2736
▁holds	-10.2737
▁sophie	-10.275
▁umbrella	-10.2754
▁prize	-10.2758
▁ending	-10.2778
he	-10.2782
▁lemon	-10.2795
▁driving	-10.2804
▁engine	-10.281
▁flexible	-10.2822
▁dull	-10.2826
▁low	-10.2835
▁stage	-10.2836
▁class	-10.2844
▁meal	-10.2853
▁carrying	-10.2854
▁washed	-10.2865
▁jacket	-10.2887
▁graceful	-10.2889
▁missing	-10.2896
▁hoop	-10.2898
▁regular	-10.29
▁reading	-10.2902
▁sparkled	-10.2907
▁impressive	-10.2912
▁popular	-10.2914
▁library	-10.2933
▁tied	-10.2943
▁ways	-10.295
▁corn	-10.2951
▁seeds	-10.2956
▁imagined	-10.2986
▁thunder	-10.3
▁truth	-10.3004
▁mole	-10.302
▁dreaming	-10.3024
▁rubbed	-10.3031
▁shocked	-10.3031
▁sudden	-10.3037
▁ingredients	-10.3041
▁nut	-10.3053
▁feather	-10.307
▁butterflies	-10.3089
▁stranger	-10.3094
▁nurse	-10.3106
er	-10.3111
▁flashlight	-10.3127
▁early	-10.3135
▁thirsty	-10.3144
▁fresh	-10.3165
▁careless	-10.3201
▁chew	-10.3207
▁rat	-10.3219
▁alex	-10.3229
▁value	-10.3229
▁spring	-10.3234
▁bracelet	-10.3241
▁diamond	-10.3251
▁opens	-10.3252
▁peeked	-10.3253
▁wheels	-10.3259
▁humble	-10.3261
▁ahead	-10.327
there	-10.327
▁cheap	-10.3284
▁numbers	-10.3284
▁poppy	-10.3295
▁handle	-10.3296
▁spilled	-10.3298
▁gum	-10.3303
▁wing	-10.3314
▁crane	-10.3314
▁rug	-10.3323
▁flute	-10.3352
▁sunflower	-10.3373
old	-10.3373
▁scale	-10.3387
▁raven	-10.3388
▁spoke	-10.3404
▁pale	-10.3412
▁beetle	-10.3418
▁warned	-10.3421
bye	-10.3423
▁statue	-10.3436
▁bull	-10.3436
▁guard	-10.3442
▁mailbox	-10.3449
▁cooking	-10.3451
▁counting	-10.3452
▁sorts	-10.3457
▁note	-10.3458
▁uncomfortable	-10.348
▁placed	-10.3485
▁badly	-10.3498
▁tunnel	-10.3524
▁older	-10.3524
▁biggest	-10.3531
▁growing	-10.3542
▁crocodile	-10.3544
yay	-10.3544
▁fin	-10.3551
▁celebrate	-10.3568
▁sofa	-10.3572
▁cupboard	-10.3572
▁paul	-10.3594
▁drop	-10.3596
▁deaf	-10.36
▁grace	-10.3606
they	-10.3606
▁harmless	-10.3639
▁hang	-10.3639
▁jelly	-10.3645
▁past	-10.3646
▁desk	-10.3649
▁andy	-10.3657
▁beauty	-10.3658
▁skip	-10.3666
▁shoot	-10.3668
▁track	-10.3674
aid	-10.3679
▁sell	-10.3684
▁towers	-10.3692
▁shut	-10.3699
▁crystal	-10.3713
▁pepper	-10.3714
▁persistent	-10.3724
▁order	-10.3731
▁couldnâ	-10.3738
▁cereal	-10.374
▁charming	-10.3755
▁gifted	-10.3767
▁anxious	-10.379
▁refused	-10.3803
▁pretending	-10.3825
▁slid	-10.3834
▁flour	-10.3835
▁parade	-10.3852
▁sandwiches	-10.3854
▁envelope	-10.3862
▁collar	-10.3883
▁ordinary	-10.389
▁snuggled	-10.3891
▁drawer	-10.3895
▁computer	-10.3896
▁hurry	-10.3902
▁chasing	-10.3908
▁lead	-10.391
▁trap	-10.3921
▁stops	-10.3927
▁sandy	-10.3931
▁station	-10.3938
▁lively	-10.3968
▁turkey	-10.3972
▁study	-10.398
▁piano	-10.3993
▁package	-10.3994
▁rules	-10.3998
▁lizard	-10.4015
▁helps	-10.4027
▁needle	-10.4028
▁helmet	-10.4029
▁gloomy	-10.4031
▁hunter	-10.4043
▁intelligent	-10.4045
▁return	-10.405
▁alert	-10.4069
▁shaking	-10.4076
▁pony	-10.4077
▁zebra	-10.4093
▁design	-10.4094
▁octopus	-10.4101
▁screen	-10.4112
▁soldier	-10.4118
▁pat	-10.412
▁hung	-10.413
▁twirled	-10.4146
▁fireman	-10.4147
▁thief	-10.4184
▁brownie	-10.4185
▁jumps	-10.4186
give	-10.4187
▁jet	-10.4199
cream	-10.42
▁chance	-10.4206
▁miserable	-10.4211
▁pack	-10.4256
▁radio	-10.4264
▁dug	-10.4269
▁anywhere	-10.4272
▁creatures	-10.4284
▁less	-10.4291
▁shine	-10.4294
▁slides	-10.4307
▁bandage	-10.4312
▁ignorant	-10.4319
▁henry	-10.4323
▁cube	-10.4329
▁fan	-10.4338
▁blow	-10.4343
▁wishes	-10.4343
▁square	-10.4347
▁pigeon	-10.4356
▁everyday	-10.4364
▁buddy	-10.4366
▁pasta	-10.4367
▁anyway	-10.4368
▁led	-10.4368
▁charlie	-10.438
▁courage	-10.4395
▁names	-10.4395
▁cocoa	-10.4402
▁seem	-10.4406
▁bounced	-10.4407
up	-10.4407
▁lollipop	-10.4412
▁trash	-10.4417
▁chubby	-10.4423
▁practiced	-10.4441
▁seal	-10.4444
▁stickers	-10.4447
▁suit	-10.4448
▁jeep	-10.445
▁gem	-10.445
▁annie	-10.4454
▁papa	-10.4457
▁leash	-10.4465
▁compassionate	-10.4469
▁attractive	-10.4495
▁arrow	-10.4499
▁stirred	-10.4513
▁stretched	-10.4516
▁post	-10.4525
▁carpet	-10.4531
▁further	-10.4542
▁trumpet	-10.4554
▁helpless	-10.4557
▁decorate	-10.4558
▁tweetie	-10.4571
▁ghost	-10.4576
▁fear	-10.4582
▁respectful	-10.4583
▁candle	-10.4601
▁brighter	-10.4603
▁somewhere	-10.4605
▁competitive	-10.4613
▁comb	-10.4623
▁jerry	-10.4627
▁jug	-10.4631
▁case	-10.4638
▁letters	-10.4646
▁troubled	-10.4659
▁bark	-10.4668
▁itself	-10.4674
▁pressed	-10.4678
▁leopard	-10.4688
▁afternoon	-10.4691
▁mask	-10.4702
▁attic	-10.4703
▁steps	-10.471
▁broccoli	-10.4712
▁restless	-10.4723
▁fearful	-10.4738
▁adorable	-10.4772
▁disgusting	-10.4773
▁tray	-10.4776
▁sweetheart	-10.4776
▁lilly	-10.4794
▁ten	-10.48
▁crawl	-10.4801
▁nuts	-10.4802
▁giggle	-10.4803
▁rub	-10.4817
▁restaurant	-10.4819
▁fork	-10.4819
▁pants	-10.4822
▁guess	-10.4823
▁tool	-10.483
▁envious	-10.4839
▁summer	-10.4839
▁ostrich	-10.485
▁filthy	-10.4852
▁soar	-10.4856
▁lee	-10.4866
▁shoe	-10.4868
▁distant	-10.4874
▁stir	-10.4875
▁shadow	-10.4879
▁quick	-10.4882
▁impatient	-10.4884
▁pipe	-10.4892
▁cap	-10.4901
▁shouts	-10.4908
▁scooter	-10.4914
▁question	-10.4918
▁thread	-10.4923
▁cooked	-10.4927
▁maria	-10.4938
▁record	-10.4944
▁danny	-10.4948
▁stretch	-10.4962
▁belt	-10.4965
▁club	-10.4981
▁sandbox	-10.4982
▁cards	-10.499
▁travel	-10.4994
▁admire	-10.5017
▁cheer	-10.5022
▁math	-10.5024
▁listening	-10.5024
▁starts	-10.5025
▁squash	-10.5029
▁shade	-10.5032
▁lightning	-10.5033
▁nowhere	-10.5034
▁gorilla	-10.5043
▁mule	-10.5046
▁dish	-10.5048
▁bathtub	-10.5061
▁cricket	-10.5062
▁bicycle	-10.5071
▁quite	-10.5082
▁barking	-10.5084
▁lid	-10.5092
▁harsh	-10.5096
▁crack	-10.5098
▁paws	-10.5098
▁beep	-10.511
▁five	-10.5125
▁relax	-10.5125
▁thanks	-10.5134
▁ants	-10.5135
▁happier	-10.5144
▁windows	-10.5146
▁stuff	-10.5151
▁panda	-10.5156
▁monkeys	-10.5167
▁sort	-10.5178
▁message	-10.5178
▁jellyfish	-10.5203
▁alligator	-10.5207
▁hippo	-10.5216
▁stared	-10.522
▁modest	-10.5237
▁millie	-10.5244
year	-10.5252
▁cows	-10.5252
▁pour	-10.5271
▁yogurt	-10.5273
▁whiskers	-10.5279
▁dessert	-10.5279
▁given	-10.5279
▁bubble	-10.5281
▁kate	-10.5283
▁melon	-10.5288
▁tweet	-10.5303
▁otter	-10.5311
▁salt	-10.5318
▁pole	-10.5327
▁size	-10.5327
▁paid	-10.533
▁split	-10.5333
▁wheat	-10.5337
▁helicopter	-10.5349
▁violin	-10.5354
▁rescue	-10.5357
▁vine	-10.5372
▁purse	-10.5374
▁pilot	-10.5379
▁mimi	-10.5408
▁enthusiastic	-10.5415
▁ted	-10.5415
▁wander	-10.5419
ve	-10.542
▁spirit	-10.5422
▁organize	-10.5429
▁hook	-10.543
▁grabs	-10.543
▁however	-10.5431
▁donâ	-10.5435
▁tripped	-10.5445
▁triangle	-10.5446
▁harry	-10.5452
▁swinging	-10.5453
▁mug	-10.5454
▁tooth	-10.5458
▁rice	-10.5459
▁perform	-10.5462
▁sent	-10.5463
▁sheet	-10.5463
▁object	-10.547
▁riding	-10.5471
▁roared	-10.5474
▁forgave	-10.5481
▁behave	-10.5485
▁pushing	-10.5505
▁mild	-10.5515
▁raft	-10.5515
▁peace	-10.5519
▁speed	-10.5522
▁didnâ	-10.5524
anna	-10.5528
▁taxi	-10.5535
▁neat	-10.5556
▁steal	-10.5568
▁yell	-10.5584
▁heal	-10.5595
▁cop	-10.5603
▁starting	-10.5604
▁rod	-10.5608
▁knot	-10.5609
▁evening	-10.5625
▁tuna	-10.5628
▁kangaroo	-10.5629
▁tire	-10.5632
▁energy	-10.5656
▁reward	-10.5659
▁wallet	-10.5668
▁van	-10.5669
▁tomato	-10.5685
▁fold	-10.5686
▁porch	-10.5687
▁either	-10.569
▁pulls	-10.5705
▁frowned	-10.5713
ting	-10.5727
▁sticker	-10.5731
▁notebook	-10.5739
▁boots	-10.5739
▁sweater	-10.5746
▁silver	-10.5749
▁bananas	-10.5757
▁send	-10.5765
▁museum	-10.5777
▁ended	-10.5779
▁seeing	-10.579
▁palace	-10.5793
▁rolling	-10.5811
▁dust	-10.5812
▁strawberry	-10.5815
▁shopkeeper	-10.5836
▁knock	-10.5838
▁sock	-10.5857
▁imagine	-10.5865
▁microphone	-10.5876
▁steak	-10.5878
▁barrel	-10.588
▁jokes	-10.5888
▁chalk	-10.5891
▁bikes	-10.5892
▁reindeer	-10.5897
▁ink	-10.5916
▁glow	-10.592
▁tony	-10.5928
▁bin	-10.5935
▁magnet	-10.5936
tmm	-10.5945
▁wire	-10.5952
▁since	-10.5957
▁cactus	-10.5968
▁tube	-10.597
▁judge	-10.5972
▁climbing	-10.5983
▁sailor	-10.5983
▁eraser	-10.5996
▁alive	-10.5998
▁laundry	-10.5999
▁penguin	-10.6004
▁hive	-10.6014
▁clapping	-10.6016
▁shakes	-10.6051
▁jewel	-10.6053
▁softly	-10.6054
▁putting	-10.6057
▁holes	-10.6061
▁cord	-10.6074
▁shield	-10.6075
▁pushes	-10.6077
▁visited	-10.6084
▁falling	-10.6088
▁tricks	-10.6099
▁james	-10.6109
▁trains	-10.6114
▁volcano	-10.6116
▁airport	-10.6118
▁pebble	-10.6118
▁learnt	-10.6119
▁lions	-10.6127
▁leaned	-10.6129
▁zoomed	-10.6131
▁shelter	-10.6132
▁coffee	-10.6137
▁colours	-10.6148
▁danger	-10.6156
▁polish	-10.6165
▁ambulance	-10.6166
▁meat	-10.6175
▁trick	-10.6176
▁stack	-10.6187
▁checked	-10.6197
▁seed	-10.6198
▁smells	-10.6201
▁dive	-10.6209
▁mill	-10.6209
▁marched	-10.6214
▁aeroplane	-10.6215
▁winter	-10.6218
▁rubber	-10.6235
▁shrimp	-10.6239
▁drawings	-10.6243
▁goal	-10.6257
▁wool	-10.6263
▁loop	-10.6263
▁acorn	-10.6263
▁dishes	-10.6287
▁mushroom	-10.629
▁belongs	-10.629
▁yacht	-10.631
▁costume	-10.631
▁grapes	-10.6311
▁rag	-10.6312
▁celery	-10.6313
▁twist	-10.6329
▁repair	-10.6332
▁backpack	-10.634
▁elevator	-10.6343
▁maggie	-10.6344
▁medal	-10.6345
▁trophy	-10.6346
▁task	-10.6347
▁marry	-10.6347
▁onion	-10.6347
▁apologized	-10.6359
▁hoping	-10.636
▁sir	-10.6365
▁chain	-10.6374
▁support	-10.6378
▁soil	-10.6387
▁comfort	-10.6391
▁minute	-10.6402
▁barks	-10.6411
▁page	-10.6412
▁earth	-10.6416
▁twig	-10.6422
▁spike	-10.6432
▁unhappy	-10.6437
▁available	-10.6442
▁papers	-10.6445
▁basketball	-10.6456
▁haircut	-10.6463
▁raining	-10.647
▁journal	-10.6478
▁mechanic	-10.648
▁planet	-10.6482
▁peanut	-10.6485
▁tap	-10.6487
▁counter	-10.6501
▁shouldn	-10.6502
▁resist	-10.651
▁speak	-10.6512
▁perfectly	-10.6521
▁drops	-10.6522
▁baking	-10.6522
▁flies	-10.6532
▁complete	-10.6544
▁frame	-10.6569
▁eagerly	-10.6573
▁diary	-10.6576
▁glove	-10.6586
▁quit	-10.6587
▁player	-10.6589
▁closely	-10.6597
▁cardboard	-10.6603
▁pit	-10.6607
▁comet	-10.6613
▁smith	-10.6627
▁hadn	-10.6633
▁cooler	-10.6664
▁folder	-10.6665
▁skull	-10.6672
▁coal	-10.6677
▁vendor	-10.6679
▁church	-10.6681
▁bent	-10.6684
▁clara	-10.6687
▁peek	-10.6693
▁second	-10.6694
▁furniture	-10.6699
▁pair	-10.6712
▁fields	-10.6713
▁stuffed	-10.6726
▁unlock	-10.6744
▁lie	-10.675
▁flame	-10.6766
▁peach	-10.6769
▁wife	-10.6771
▁yoga	-10.6781
▁headed	-10.6785
▁switch	-10.6787
▁oil	-10.6794
▁football	-10.6804
▁letâ	-10.6812
▁motorcycle	-10.6827
▁bun	-10.6841
▁sunset	-10.6849
▁factory	-10.6857
▁between	-10.6861
▁pin	-10.687
▁cauliflower	-10.6909
▁mop	-10.6909
▁vroom	-10.6915
▁swung	-10.6926
▁potato	-10.6932
▁gather	-10.6933
▁hotel	-10.6934
▁stamp	-10.6935
▁painter	-10.6937
▁mixer	-10.6941
▁shouting	-10.6955
▁cats	-10.6966
▁video	-10.6972
▁laser	-10.6972
▁hut	-10.6975
▁spell	-10.6983
▁blowing	-10.6988
▁bloom	-10.7014
▁fisherman	-10.7015
▁skeleton	-10.7019
your	-10.7021
▁cushion	-10.7026
▁zipper	-10.7029
▁god	-10.704
▁wipe	-10.7044
▁pirates	-10.7047
▁giraffe	-10.7051
▁human	-10.706
▁maze	-10.7076
▁treasures	-10.7079
▁poke	-10.7098
▁created	-10.7105
▁powder	-10.7106
▁soccer	-10.7107
▁cable	-10.712
▁breaks	-10.7123
▁explain	-10.7124
▁cups	-10.7166
▁rhinoceros	-10.7194
▁battery	-10.7196
▁popped	-10.7198
▁anchor	-10.7212
▁attention	-10.7224
▁golf	-10.7235
▁photo	-10.7245
▁flea	-10.7247
▁weather	-10.7252
▁forgotten	-10.7254
▁tutor	-10.7261
▁fishing	-10.7263
▁pine	-10.7263
▁celebrated	-10.7278
▁frogs	-10.7299
▁axe	-10.7303
▁luckily	-10.7305
▁point	-10.7315
▁waving	-10.7323
▁slept	-10.7324
▁deliver	-10.7326
tim	-10.7334
▁throws	-10.7337
▁dan	-10.7341
▁kingdom	-10.7341
▁jazz	-10.7346
▁motor	-10.7346
▁breeze	-10.7354
▁fireplace	-10.7375
▁swamp	-10.738
▁vet	-10.7393
▁lives	-10.7398
▁imagination	-10.7401
▁meeting	-10.742
▁curtain	-10.7421
▁pup	-10.7421
▁rosie	-10.7423
▁dancer	-10.7427
▁horses	-10.7431
▁glowing	-10.7434
▁parent	-10.7439
▁ceiling	-10.7451
▁sunglasses	-10.7452
▁lend	-10.7464
▁memories	-10.7469
▁fog	-10.7486
▁points	-10.749
max	-10.7499
▁strength	-10.7499
▁hockey	-10.7503
▁dear	-10.752
▁petals	-10.7526
wait	-10.7529
▁baseball	-10.753
r	-10.7534
▁tina	-10.754
▁igloo	-10.7547
▁knob	-10.755
▁greedy	-10.7555
▁cabin	-10.7556
▁itâ	-10.756
▁napkin	-10.757
▁gas	-10.7577
itâ	-10.7579
▁temple	-10.7596
▁bulb	-10.7606
▁microscope	-10.7608
▁golden	-10.7613
▁hanging	-10.7624
▁writing	-10.7627
▁hedge	-10.7631
▁argue	-10.7644
▁skirt	-10.7648
▁staff	-10.766
▁sniffed	-10.766
▁mistakes	-10.7667
▁bears	-10.7672
▁success	-10.7673
▁chickens	-10.7685
▁shovel	-10.7688
▁iron	-10.7707
▁feelings	-10.7717
▁shoulder	-10.7729
▁buzz	-10.773
▁film	-10.773
▁theater	-10.7732
▁bouncing	-10.7745
▁radish	-10.7747
▁immediately	-10.7748
▁eaten	-10.7759
▁trail	-10.7774
▁pistol	-10.7785
▁quietly	-10.7798
▁welcomed	-10.7805
▁pear	-10.7805
▁dur	-10.7809
▁throwing	-10.782
▁lotion	-10.782
▁doggy	-10.783
▁slippery	-10.7833
▁flapped	-10.7842
▁avocado	-10.7843
▁lime	-10.7852
▁fought	-10.7855
▁plastic	-10.7856
▁accepted	-10.7863
▁lawyer	-10.7873
▁marble	-10.7875
▁sticky	-10.7886
▁kayak	-10.7886
▁creek	-10.7897
▁oyster	-10.7901
▁freezer	-10.7925
▁reef	-10.7935
▁puddles	-10.7945
▁missile	-10.7952
▁agree	-10.7955
▁investigate	-10.7966
▁armchair	-10.7987
▁chess	-10.7996
▁mystery	-10.8011
▁makeup	-10.8012
▁faucet	-10.8027
▁oak	-10.8038
▁cared	-10.8038
▁vest	-10.8058
▁snowy	-10.8059
▁squirrels	-10.8061
▁tear	-10.8069
▁shower	-10.8071
▁separate	-10.8076
timmy	-10.8078
▁bye	-10.8081
▁ticket	-10.8089
▁rise	-10.8093
▁sailing	-10.8094
▁cherries	-10.8104
▁tub	-10.8107
▁tug	-10.8113
▁worth	-10.8117
▁rake	-10.8119
▁discover	-10.8119
▁splashing	-10.8124
▁beef	-10.8127
▁heads	-10.8132
▁magazine	-10.8138
▁alarm	-10.8139
▁crib	-10.8142
▁calls	-10.8149
▁mattress	-10.8158
▁wags	-10.8161
▁pray	-10.8188
▁chimney	-10.8192
▁offer	-10.8193
▁toilet	-10.8197
▁collected	-10.8199
▁dishwasher	-10.82
▁mint	-10.8202
▁sprayed	-10.8205
▁quarrel	-10.8207
▁bean	-10.821
▁pattern	-10.8247
▁entered	-10.8258
▁mustache	-10.8265
▁muffin	-10.8279
▁veil	-10.828
▁scolded	-10.8285
▁mosquito	-10.8289
▁shrugged	-10.8289
▁freddy	-10.8289
▁burn	-10.832
▁hall	-10.834
▁spark	-10.8344
▁cabinet	-10.8351
▁captain	-10.8351
▁razor	-10.8354
▁sparkle	-10.8356
▁choice	-10.8363
▁cane	-10.8375
▁poem	-10.8375
▁tucked	-10.8378
▁musician	-10.8403
▁pill	-10.8403
▁ignored	-10.8405
▁trade	-10.8405
▁nail	-10.8413
▁presents	-10.8423
▁display	-10.8427
▁disappear	-10.8432
▁kisses	-10.8436
▁classroom	-10.8448
▁accept	-10.845
▁ruby	-10.8452
▁melt	-10.8462
▁finds	-10.847
▁easily	-10.8474
▁candles	-10.8478
▁happens	-10.848
▁opera	-10.8495
▁language	-10.8497
▁country	-10.851
▁burned	-10.8519
▁serve	-10.8534
▁short	-10.8537
▁keeping	-10.8544
▁iâ	-10.8567
▁milly	-10.8567
▁olive	-10.857
▁dressed	-10.8581
▁trusted	-10.8582
▁veterinarian	-10.8584
▁jewelry	-10.8587
▁claws	-10.8593
▁telephone	-10.8599
▁wardrobe	-10.8612
▁blinked	-10.8616
▁caring	-10.8622
▁newspaper	-10.8623
▁luck	-10.8625
or	-10.865
▁stable	-10.8665
▁tornado	-10.8665
▁moves	-10.8683
▁crossed	-10.8693
▁sizes	-10.8697
because	-10.8712
▁bookcase	-10.8722
▁coats	-10.8726
▁valley	-10.8727
▁unpack	-10.8735
▁blouse	-10.8737
▁straight	-10.8743
▁lab	-10.8756
▁perfume	-10.8767
▁squeeze	-10.8768
▁hopes	-10.8779
▁blueberries	-10.8785
▁isn	-10.8785
▁subway	-10.8797
▁blankets	-10.8806
▁grill	-10.8811
▁follows	-10.8818
▁lawn	-10.8823
▁amazement	-10.8828
▁television	-10.8833
▁spear	-10.8838
▁squeezed	-10.8851
▁bookshelf	-10.8853
▁planes	-10.8861
▁puzzles	-10.8871
▁symbol	-10.8872
▁uniform	-10.8872
▁apart	-10.8873
▁file	-10.8882
▁chairs	-10.8887
▁shampoo	-10.8889
p	-10.8892
▁following	-10.8893
▁crawling	-10.8897
▁castles	-10.8901
▁blood	-10.8915
▁pinch	-10.8926
▁experience	-10.8929
▁cliff	-10.8934
▁attach	-10.8935
▁drain	-10.8947
▁poked	-10.8954
sam	-10.8971
o	-10.898
▁gym	-10.8995
▁matches	-10.9002
▁ribbon	-10.9007
▁helper	-10.9014
ha	-10.9015
▁gear	-10.9022
▁shrink	-10.9035
▁ringing	-10.9046
▁fuel	-10.9048
▁licks	-10.9049
▁spade	-10.905
▁berry	-10.9052
▁sneeze	-10.9064
▁ha	-10.9095
▁dictionary	-10.9105
▁unfortunately	-10.9111
▁crash	-10.9122
▁invite	-10.9122
welcome	-10.9126
▁whip	-10.9133
▁growled	-10.9137
▁begged	-10.9152
▁birdcage	-10.9161
▁warmth	-10.9165
did	-10.9179
▁alright	-10.9183
▁katie	-10.9217
▁below	-10.9221
▁ignore	-10.9228
▁festival	-10.9248
▁yucky	-10.9248
▁mist	-10.9254
▁married	-10.9264
▁fallen	-10.929
▁calendar	-10.9301
▁snap	-10.9302
▁novel	-10.9311
▁bravely	-10.9315
▁x	-10.9322
▁pastry	-10.9328
▁root	-10.9348
▁worms	-10.9356
▁improve	-10.9359
ver	-10.936
▁safety	-10.9363
▁weigh	-10.9372
▁exam	-10.938
▁laughter	-10.9387
▁understanding	-10.9398
▁wandered	-10.9399
▁oasis	-10.9418
▁doors	-10.9433
▁hurting	-10.9447
▁reverse	-10.9452
▁ollie	-10.9455
▁buckle	-10.9457
▁apron	-10.9469
▁sparkles	-10.9484
▁pages	-10.9492
▁bathe	-10.9496
▁bury	-10.9511
▁waste	-10.9523
▁sandcastle	-10.9532
▁buried	-10.9544
▁reaches	-10.9548
▁strawberries	-10.9549
▁someday	-10.957
▁relaxed	-10.9595
▁myself	-10.9601
▁holiday	-10.9606
▁quiz	-10.9611
▁rot	-10.9611
▁steam	-10.9623
▁ashtray	-10.9628
▁junk	-10.9629
▁skills	-10.9637
▁steve	-10.9649
▁screw	-10.9656
▁raise	-10.966
▁rachel	-10.9673
▁breathe	-10.968
thanks	-10.9682
▁ornament	-10.9708
▁cell	-10.971
tmre	-10.9717
▁model	-10.9723
yuck	-10.9724
▁teaching	-10.9727
▁bathrobe	-10.9744
▁betsy	-10.9744
▁saving	-10.9747
▁earlier	-10.9751
▁refrigerator	-10.9751
▁beamed	-10.9754
▁snapped	-10.9759
▁tease	-10.9766
▁received	-10.9789
▁harbor	-10.9796
▁waffle	-10.9808
▁dare	-10.9817
▁load	-10.9823
▁socks	-10.9859
▁hearts	-10.986
▁plates	-10.986
▁enter	-10.9862
▁vanished	-10.988
▁sparkling	-10.9885
▁insisted	-10.9895
▁license	-10.99
▁jail	-10.9904
▁bumped	-10.9919
▁lumber	-10.9923
▁insect	-10.9929
▁spending	-10.9945
▁blackboard	-10.9967
▁boot	-10.9968
▁moments	-10.9969
▁prepare	-10.997
▁dried	-10.9979
▁remove	-10.9986
▁spoil	-10.9988
tmll	-11.0015
▁scattered	-11.0018
▁none	-11.0031
▁settled	-11.0033
▁scooped	-11.0034
▁permission	-11.004
▁jewels	-11.0065
▁encouraged	-11.0073
▁known	-11.0076
ups	-11.0077
▁hanger	-11.0079
▁yawned	-11.0083
▁destroyed	-11.0106
▁wine	-11.0136
▁abigail	-11.0143
▁hardly	-11.0148
▁hate	-11.0161
▁pride	-11.0162
▁lemonade	-11.0163
▁pulling	-11.0174
▁nation	-11.0197
▁decorations	-11.02
▁war	-11.0203
▁toes	-11.0205
▁cuddled	-11.0225
▁afterwards	-11.0237
▁wizard	-11.0248
▁beans	-11.0259
▁prevent	-11.0276
▁appreciate	-11.0305
▁mall	-11.031
▁washing	-11.0311
▁superhero	-11.0321
▁port	-11.0326
▁rail	-11.0327
▁label	-11.0328
▁wisdom	-11.0335
▁chirping	-11.0336
▁cartoon	-11.0339
▁praised	-11.0339
▁billboard	-11.0353
▁patiently	-11.0355
▁automobile	-11.0362
▁surprises	-11.0368
▁buzzing	-11.0374
▁provide	-11.0385
▁fastest	-11.0389
▁david	-11.0396
▁dresses	-11.0398
▁chamber	-11.0401
sara	-11.0417
▁brain	-11.0428
▁score	-11.0436
▁destination	-11.0442
▁taller	-11.0446
▁law	-11.0449
▁passport	-11.0454
▁sausage	-11.0462
▁shot	-11.0465
▁whisper	-11.0466
▁bang	-11.0472
▁structure	-11.0472
▁surrender	-11.0477
▁replace	-11.0496
▁infant	-11.0502
▁mitten	-11.0508
▁digging	-11.052
▁believed	-11.0529
▁rabbits	-11.0531
▁cobweb	-11.0538
▁approached	-11.0554
▁hurricane	-11.0555
▁remain	-11.0561
▁deeper	-11.0565
▁restore	-11.0568
▁heat	-11.057
ray	-11.058
▁press	-11.0608
▁vacation	-11.0611
▁tongue	-11.0615
▁struggling	-11.0618
▁supply	-11.064
▁universe	-11.0649
▁panic	-11.0651
▁cheek	-11.0657
▁warning	-11.0662
▁cherry	-11.0669
▁upstairs	-11.067
▁university	-11.0688
▁camp	-11.0695
▁sneezed	-11.0695
▁examine	-11.0711
▁thrilled	-11.0722
▁leak	-11.0732
▁worse	-11.077
mmm	-11.0772
▁twisted	-11.0776
▁airplane	-11.0778
▁urge	-11.078
▁setting	-11.0789
▁glowed	-11.0794
▁hits	-11.0802
▁succeed	-11.0807
▁solved	-11.0812
▁collection	-11.0814
▁sits	-11.0829
▁sprinkles	-11.0843
▁jo	-11.0853
▁shooting	-11.0861
▁pillows	-11.0864
▁massage	-11.0868
▁ranch	-11.087
▁thermometer	-11.0883
thatâ	-11.09
▁ideas	-11.0916
▁remained	-11.0922
▁neighborhood	-11.0922
▁floated	-11.093
these	-11.0935
▁ash	-11.095
▁chores	-11.0954
▁thumb	-11.0967
▁copper	-11.0985
▁weeks	-11.099
▁rhythm	-11.0998
▁grey	-11.102
▁remind	-11.1028
▁floating	-11.1034
would	-11.1049
▁sip	-11.1072
▁fixing	-11.1076
one	-11.108
▁stadium	-11.1094
▁surrounded	-11.1098
▁measured	-11.1104
▁supposed	-11.1107
▁batter	-11.1108
▁parts	-11.111
▁grinned	-11.112
▁liz	-11.1131
▁memory	-11.1136
▁paused	-11.1139
▁exercise	-11.1147
▁everybody	-11.1154
▁tide	-11.1162
▁teaspoon	-11.1168
▁future	-11.1188
▁observe	-11.1196
▁vehicle	-11.1238
▁sunrise	-11.1242
▁zoe	-11.127
▁marbles	-11.1271
▁palm	-11.1273
▁discovery	-11.1279
▁gust	-11.1288
▁actually	-11.1291
▁rush	-11.1314
▁mailman	-11.1324
▁art	-11.1326
▁beside	-11.1349
▁neighbour	-11.1367
▁unite	-11.1392
▁climbs	-11.1396
▁meowed	-11.1398
▁oranges	-11.1403
▁scratch	-11.1413
▁accident	-11.1423
▁velvet	-11.1431
▁decision	-11.1434
▁weapon	-11.1436
▁yield	-11.1444
▁chewed	-11.145
▁luggage	-11.1463
iâ	-11.1474
ready	-11.1512
▁jogging	-11.1519
▁grape	-11.1524
▁destroy	-11.154
▁tomatoes	-11.1545
▁mineral	-11.1545
▁hills	-11.1549
▁possible	-11.1559
▁delay	-11.1563
▁continue	-11.1573
▁sunlight	-11.1584
▁curled	-11.1596
▁folded	-11.1601
▁paints	-11.1608
▁cartoons	-11.161
▁keeper	-11.161
▁collecting	-11.1611
▁gifts	-11.1614
▁firework	-11.1617
▁brings	-11.1619
▁tour	-11.1622
▁shiver	-11.1627
▁melted	-11.1634
▁prune	-11.1639
▁skipping	-11.1643
▁mister	-11.1645
▁receive	-11.1647
▁chirped	-11.1651
▁difference	-11.1652
▁julie	-11.1657
▁bites	-11.1658
▁sliding	-11.1679
▁manage	-11.1697
▁itch	-11.1705
▁signs	-11.1707
▁safari	-11.1719
▁remy	-11.1733
▁elephants	-11.1756
▁eagle	-11.1787
▁navy	-11.1789
▁rooms	-11.179
ouch	-11.1808
▁potatoes	-11.1811
▁complain	-11.1818
▁admiring	-11.1822
▁laid	-11.1823
c	-11.1837
▁equipment	-11.1846
▁nina	-11.1852
is	-11.1853
▁repeat	-11.186
▁whistling	-11.1876
▁watered	-11.1881
▁slice	-11.1889
▁petted	-11.19
▁tracks	-11.1916
▁kindly	-11.1925
▁luna	-11.1952
▁bricks	-11.1961
▁officer	-11.1963
▁patterns	-11.1986
▁overjoyed	-11.1988
▁stomach	-11.1989
▁twigs	-11.1995
▁twirl	-11.2019
▁soldiers	-11.2027
▁ordered	-11.2027
▁gotten	-11.2033
▁mountains	-11.2043
▁torn	-11.2056
▁zipped	-11.2066
▁watches	-11.2082
▁gloves	-11.2083
g	-11.209
▁marching	-11.2097
▁problems	-11.21
▁price	-11.2115
▁spots	-11.2121
▁earthquake	-11.2123
▁network	-11.2123
▁invitation	-11.2124
▁prayed	-11.2131
▁colour	-11.2139
▁zero	-11.2142
▁peered	-11.2157
▁strangers	-11.2164
▁thomas	-11.2168
▁history	-11.2184
▁beth	-11.2191
▁anytime	-11.2196
▁menu	-11.2197
▁sidewalk	-11.2209
▁wooden	-11.2234
▁pigs	-11.2245
▁seats	-11.225
▁disagreed	-11.2256
▁attached	-11.2261
▁acorns	-11.2268
▁grocery	-11.2273
▁suzy	-11.2275
will	-11.2277
▁racing	-11.2295
▁float	-11.2299
▁raised	-11.2301
▁poison	-11.2317
▁company	-11.2333
▁accidents	-11.2349
▁operation	-11.2351
she	-11.2357
▁bother	-11.2365
▁fed	-11.2375
▁row	-11.2389
▁burning	-11.2392
▁onwards	-11.2407
▁happiest	-11.2408
▁sold	-11.2414
▁brick	-11.243
▁floppy	-11.2432
seek	-11.2441
▁fireworks	-11.2441
▁lands	-11.2443
est	-11.2461
▁josh	-11.2464
▁crashed	-11.2472
▁crunchy	-11.2476
▁chloe	-11.2498
▁peanuts	-11.25
▁herb	-11.2503
▁turning	-11.2516
▁whistled	-11.2541
▁refreshed	-11.2552
b	-11.257
▁scratched	-11.2589
▁tip	-11.2593
really	-11.2596
▁clearing	-11.2598
▁bones	-11.2605
▁prepared	-11.2613
▁bowed	-11.262
▁gain	-11.2622
es	-11.2628
▁escaped	-11.2631
▁slip	-11.2653
▁planted	-11.2657
▁reminder	-11.266
▁comfy	-11.2671
▁easier	-11.2671
▁brand	-11.2672
▁lips	-11.2672
▁revealed	-11.268
▁settle	-11.2689
▁stitch	-11.269
ie	-11.2709
▁hated	-11.2714
▁precious	-11.2714
▁dinosaurs	-11.273
▁drinks	-11.2732
▁frank	-11.2737
▁selling	-11.2743
boo	-11.2753
▁muddy	-11.276
▁recognized	-11.2766
▁crept	-11.2773
▁beat	-11.2787
▁landscape	-11.2812
▁scatter	-11.2813
▁whatever	-11.2816
▁drinking	-11.282
▁pies	-11.2828
▁jamie	-11.2839
▁spoons	-11.2869
▁flood	-11.288
▁measuring	-11.2902
▁screams	-11.2907
▁pitch	-11.2915
▁sunday	-11.2927
▁apologize	-11.2927
▁perched	-11.296
▁curiosity	-11.2962
▁bridges	-11.2973
▁request	-11.2988
▁spaceship	-11.299
▁cuddle	-11.2998
▁served	-11.3011
▁weren	-11.3014
▁buildings	-11.304
in	-11.305
▁circus	-11.3057
▁surf	-11.3058
▁steel	-11.3075
▁cutting	-11.3083
▁sore	-11.3105
▁quack	-11.3106
▁responsible	-11.3114
▁comforted	-11.312
▁grandmother	-11.3121
▁soared	-11.3127
▁simple	-11.3138
▁agreement	-11.3138
▁rained	-11.3154
▁succeeded	-11.3155
▁disturb	-11.3161
▁sneak	-11.3166
▁traffic	-11.3172
▁trapped	-11.3182
▁shopping	-11.3183
▁shadows	-11.3187
▁oxygen	-11.3191
▁hurried	-11.3194
▁oats	-11.3201
▁printer	-11.3212
▁wonders	-11.322
▁style	-11.3231
▁event	-11.3231
▁weight	-11.3237
▁stripes	-11.3239
▁cakes	-11.3278
▁disturbed	-11.3288
▁bringing	-11.3302
▁practicing	-11.333
▁items	-11.3332
▁rang	-11.3338
▁punish	-11.3339
▁anne	-11.3343
▁olives	-11.3348
▁exactly	-11.3349
▁rested	-11.3361
▁stealing	-11.3369
▁visiting	-11.3371
dad	-11.338
▁remembers	-11.339
to	-11.3423
▁startled	-11.3436
▁recognize	-11.3456
▁fuzzy	-11.3471
▁soak	-11.3484
▁sadness	-11.3496
▁breaking	-11.3503
▁brushed	-11.3509
▁image	-11.3529
▁fascinated	-11.3535
▁beneath	-11.3546
▁costumes	-11.3564
▁underneath	-11.3572
▁tastes	-11.3584
▁nutty	-11.3593
▁owned	-11.3598
▁waffles	-11.3603
ness	-11.3606
▁claire	-11.3612
▁underground	-11.3612
▁waist	-11.3614
▁weep	-11.3621
▁leather	-11.3624
▁freeze	-11.3632
▁knelt	-11.3639
▁villagers	-11.3655
▁blueberry	-11.3664
▁coco	-11.3666
▁creation	-11.3678
yum	-11.3681
▁downstairs	-11.369
▁nails	-11.3692
▁mission	-11.3693
▁catching	-11.3699
▁area	-11.3703
▁unlocked	-11.3704
▁died	-11.371
▁secrets	-11.3738
▁lecture	-11.374
▁cape	-11.3743
▁tremble	-11.3746
▁sings	-11.3759
▁jogged	-11.3767
▁yesterday	-11.38
▁suffer	-11.3812
▁frown	-11.3812
▁soaring	-11.382
spot	-11.3831
▁wondering	-11.3857
▁victory	-11.3873
▁wreck	-11.3873
▁pets	-11.3892
▁pip	-11.39
▁answers	-11.3904
▁bouncy	-11.3909
▁fetch	-11.3912
▁lemons	-11.3914
▁struggled	-11.3916
▁wanting	-11.392
▁exit	-11.3921
not	-11.3922
▁adam	-11.3924
▁ours	-11.3932
▁bleeding	-11.3937
▁punished	-11.3945
▁winning	-11.3952
▁challenge	-11.3958
▁gained	-11.3965
▁stirring	-11.3974
▁planned	-11.3976
▁herbs	-11.3982
▁jessie	-11.3986
▁betty	-11.3991
▁increase	-11.3992
▁nicer	-11.4006
▁news	-11.4019
▁guessed	-11.4023
▁examined	-11.4045
▁firemen	-11.4047
▁satisfied	-11.4053
▁bump	-11.406
▁zigzag	-11.4065
▁tune	-11.4067
▁argued	-11.4075
▁yawn	-11.4079
▁peaches	-11.4085
▁ripped	-11.4108
daddy	-11.411
▁tilly	-11.412
▁bunnies	-11.4126
▁studied	-11.4136
▁zooming	-11.4138
▁tugged	-11.415
▁teasing	-11.4154
▁wagging	-11.4158
▁properly	-11.4213
▁mice	-11.4219
▁six	-11.4229
looking	-11.4229
▁chirpy	-11.4237
▁winner	-11.424
▁sisters	-11.4243
▁shivering	-11.4244
▁gathering	-11.4245
▁hannah	-11.4255
▁mouths	-11.4259
▁vegetable	-11.4287
▁fashion	-11.4295
▁discuss	-11.4324
▁outdoors	-11.4324
▁loaded	-11.4328
▁twirling	-11.434
happy	-11.4345
▁lulu	-11.4347
▁yelling	-11.4359
▁mixing	-11.436
▁permit	-11.4363
▁decorated	-11.4369
▁competition	-11.4369
goodbye	-11.4378
▁budge	-11.4379
▁boss	-11.438
▁slapped	-11.4381
▁supplies	-11.4383
▁neighbourhood	-11.44
▁pearl	-11.4406
▁pancakes	-11.4408
▁regret	-11.4433
▁susan	-11.4435
▁introduce	-11.4437
▁contain	-11.4457
▁monsters	-11.4477
▁super	-11.4488
▁appear	-11.4494
▁abby	-11.4495
▁burrow	-11.4501
▁machines	-11.4505
mama	-11.451
▁doctors	-11.4515
▁weighed	-11.4515
▁flap	-11.4519
▁released	-11.4521
▁studying	-11.4531
▁tickets	-11.4546
▁realize	-11.4547
▁release	-11.4559
▁west	-11.4561
▁sneaked	-11.4579
▁works	-11.461
▁piles	-11.4614
▁ruin	-11.4618
▁dolly	-11.4621
▁strip	-11.4627
▁ruler	-11.4631
▁instructions	-11.4631
▁bunch	-11.4645
le	-11.4647
▁pastel	-11.465
▁ladybug	-11.4654
▁sights	-11.4661
▁sport	-11.4662
▁pedal	-11.4668
▁goodnight	-11.467
▁giggling	-11.4711
▁pinched	-11.4712
▁muffins	-11.4735
▁prunes	-11.4745
▁printed	-11.4771
▁struck	-11.4772
l	-11.4776
▁baked	-11.4781
▁twinkle	-11.4783
▁frosting	-11.4789
▁spiders	-11.483
▁tonight	-11.4836
▁blink	-11.4845
▁keys	-11.4861
▁ourselves	-11.4866
▁sigh	-11.4879
▁unicorn	-11.4894
▁waits	-11.4895
▁shoulders	-11.4918
▁pop	-11.493
donâ	-11.4939
▁men	-11.4943
▁stretching	-11.4958
▁poking	-11.4964
▁scurried	-11.4979
▁control	-11.499
▁stamps	-11.499
▁surface	-11.5012
▁east	-11.5027
▁beds	-11.504
▁spit	-11.5053
▁repeated	-11.5057
▁wednesday	-11.5058
▁kicking	-11.5073
▁carl	-11.5076
▁lick	-11.5087
▁cub	-11.5098
▁pears	-11.5124
▁voices	-11.513
▁cones	-11.5133
▁youth	-11.5147
▁brushes	-11.5149
▁decides	-11.515
▁demanded	-11.5157
▁mentioned	-11.5182
▁touching	-11.5184
▁boo	-11.5194
▁patience	-11.5226
▁lines	-11.5228
▁sorting	-11.5235
▁protected	-11.526
uh	-11.5273
▁result	-11.5304
▁tuesday	-11.5318
▁luke	-11.5318
▁reluctantly	-11.532
▁santa	-11.5333
▁lip	-11.5347
▁claps	-11.5357
▁camping	-11.5358
▁loose	-11.5358
▁linda	-11.5363
▁soaked	-11.5364
▁prettiest	-11.5374
▁barely	-11.5379
▁oat	-11.5386
▁discovering	-11.5403
▁prints	-11.5434
▁silence	-11.544
▁hoppy	-11.5456
▁ribbons	-11.5459
▁sting	-11.5471
▁strings	-11.5472
▁twinkling	-11.5485
▁luxury	-11.5492
▁stole	-11.5494
▁include	-11.5498
▁parked	-11.5499
▁babies	-11.5506
▁recommend	-11.5506
▁rides	-11.5523
▁pockets	-11.5533
▁shock	-11.5537
▁vowed	-11.5541
▁gazed	-11.5546
▁purred	-11.5562
▁kayla	-11.5569
▁obey	-11.557
▁momo	-11.558
▁draws	-11.5585
▁beard	-11.5586
▁steep	-11.5589
▁tickle	-11.559
▁guns	-11.559
▁marks	-11.5597
▁strike	-11.5601
▁sweeties	-11.5611
▁guys	-11.5617
▁flash	-11.5622
▁pebbles	-11.5622
▁neighbors	-11.5635
▁nightmare	-11.5642
▁applauded	-11.5657
▁chewing	-11.5658
▁broom	-11.5663
▁horns	-11.5686
▁rocking	-11.5691
▁contest	-11.5694
▁dolphins	-11.5702
ah	-11.5712
▁urged	-11.5712
▁emergency	-11.572
mia	-11.5732
▁acted	-11.5735
▁dragged	-11.5736
▁writes	-11.5777
▁catches	-11.5789
▁fabric	-11.5792
▁lizzy	-11.5792
just	-11.5809
▁loving	-11.5826
▁jenna	-11.5829
▁completed	-11.5831
▁movies	-11.5834
▁direction	-11.5839
▁season	-11.5839
▁muscles	-11.5858
▁stair	-11.5875
▁flat	-11.588
▁chips	-11.5904
▁powers	-11.5908
▁introduced	-11.591
mum	-11.5913
▁curly	-11.5916
▁solution	-11.5918
▁cindy	-11.5921
▁jeff	-11.5925
▁importance	-11.5937
▁snail	-11.5937
▁sides	-11.5945
▁frozen	-11.5954
▁suzie	-11.5957
▁highest	-11.5959
▁rubbing	-11.5971
na	-11.5977
▁curtains	-11.5985
▁figured	-11.599
▁shivered	-11.5992
▁librarian	-11.5993
▁screaming	-11.5999
▁pouring	-11.601
▁scoop	-11.6017
▁struggle	-11.6018
▁shelves	-11.6022
remember	-11.6022
▁staring	-11.6026
▁buckets	-11.603
la	-11.604
▁arrive	-11.6044
▁unexpected	-11.6045
▁roaring	-11.6047
▁rocked	-11.6048
▁hugging	-11.6054
▁entire	-11.607
john	-11.6094
▁slimy	-11.6109
▁effort	-11.6124
▁lena	-11.6128
▁eight	-11.6157
al	-11.6159
▁sorted	-11.6185
▁confident	-11.6189
▁lean	-11.6214
▁heel	-11.6216
▁ago	-11.6225
▁situation	-11.6243
▁policeman	-11.6251
▁balancing	-11.6256
▁safer	-11.6256
▁knowledge	-11.6316
ri	-11.6323
▁chases	-11.6363
▁usual	-11.6368
tm	-11.637
mummy	-11.6373
▁awesome	-11.6376
u	-11.6376
▁snowball	-11.6381
▁matt	-11.6383
▁passing	-11.6385
▁wedding	-11.6398
▁shined	-11.6413
▁homework	-11.6419
ter	-11.642
an	-11.6429
▁planets	-11.6432
▁sighs	-11.6434
▁dared	-11.6448
▁plenty	-11.6451
▁matched	-11.6453
▁zookeeper	-11.6469
▁mira	-11.65
▁pinky	-11.6508
▁boom	-11.651
▁radishes	-11.6512
▁lied	-11.6513
▁cheering	-11.652
▁reaching	-11.6532
▁resting	-11.6534
▁bravery	-11.654
▁dragons	-11.6545
▁truly	-11.6562
yeah	-11.6583
▁although	-11.6585
▁lets	-11.6599
ne	-11.662
▁web	-11.6632
▁waiter	-11.665
▁dusty	-11.6654
▁project	-11.6665
▁allow	-11.6665
▁exhausted	-11.6675
▁patted	-11.6681
▁jacob	-11.6681
▁packing	-11.6682
excuse	-11.6685
▁caused	-11.6692
▁sausages	-11.6711
▁tara	-11.6712
▁encourage	-11.6718
▁drives	-11.673
▁flavor	-11.6737
▁arguing	-11.674
▁blooming	-11.6751
▁spraying	-11.676
▁deal	-11.6769
▁flags	-11.6774
▁slap	-11.6776
▁growling	-11.6781
▁rid	-11.6794
▁worker	-11.6797
▁mane	-11.6798
▁goals	-11.6803
▁towels	-11.681
▁leader	-11.681
▁growl	-11.6813
▁piggy	-11.6842
▁bar	-11.6854
▁pupil	-11.6858
▁kneeled	-11.6864
▁matching	-11.6866
▁marriage	-11.6874
▁sticking	-11.6879
▁cast	-11.688
▁markers	-11.6897
▁momma	-11.6902
▁paddled	-11.6911
▁written	-11.6931
▁singer	-11.6947
▁traveled	-11.695
▁ranger	-11.6951
▁bank	-11.6954
▁rescued	-11.696
▁crow	-11.696
▁lizzie	-11.696
▁inviting	-11.6974
▁expected	-11.7006
▁princesses	-11.7008
▁paintings	-11.7019
▁organizing	-11.7024
▁creating	-11.7027
▁spill	-11.703
▁motion	-11.705
▁regretted	-11.7051
▁jessica	-11.7059
▁trembling	-11.7064
▁glitter	-11.708
▁meow	-11.7086
▁bloomed	-11.7088
▁julia	-11.7098
sometimes	-11.7102
▁replaced	-11.7118
▁prayer	-11.7119
▁recorded	-11.7121
▁despite	-11.7129
▁siren	-11.7156
▁lap	-11.716
▁rainbows	-11.7171
▁observed	-11.7172
run	-11.7176
▁daisies	-11.7177
▁included	-11.7179
▁fairies	-11.7208
▁cubes	-11.7213
▁darkness	-11.7213
▁opening	-11.7218
▁lamb	-11.7232
▁activities	-11.7246
▁pajamas	-11.7248
▁relief	-11.7259
▁harm	-11.727
▁worries	-11.7278
▁peeking	-11.7293
▁removed	-11.7298
▁crowd	-11.7307
▁ventured	-11.7309
▁workers	-11.731
▁completely	-11.7321
▁seesaw	-11.733
▁bat	-11.7338
▁storekeeper	-11.7345
▁countryside	-11.7347
whatâ	-11.7353
en	-11.7365
time	-11.7367
▁desert	-11.7375
▁timer	-11.7383
▁fault	-11.7397
▁polishing	-11.7403
▁belly	-11.7405
▁pencils	-11.7406
▁cautiously	-11.7408
▁applaud	-11.7434
▁miles	-11.7444
▁johnson	-11.7465
▁den	-11.7469
▁hunt	-11.7472
▁ripe	-11.7475
▁seagull	-11.7488
▁wires	-11.749
▁baker	-11.7493
▁quacked	-11.7498
▁twin	-11.7502
▁vanish	-11.7507
▁wasted	-11.7512
▁becoming	-11.7512
▁folding	-11.7546
▁honk	-11.7547
▁poems	-11.7547
▁squeaky	-11.7585
▁wow	-11.7593
▁usually	-11.761
▁flames	-11.7619
▁jones	-11.7621
▁texture	-11.7627
▁opinion	-11.7656
▁melting	-11.7669
▁faced	-11.7682
▁penguins	-11.7683
▁squealed	-11.7698
▁recording	-11.7725
▁healed	-11.7738
jack	-11.7743
▁wasnâ	-11.7759
▁larry	-11.7781
▁tractor	-11.779
▁bottles	-11.7796
▁throat	-11.7807
▁pretends	-11.7812
▁crumbs	-11.7822
▁hi	-11.7832
▁dipped	-11.7833
▁agrees	-11.7837
▁c	-11.786
▁teaches	-11.7863
▁groceries	-11.7876
▁scales	-11.7879
▁staying	-11.7881
▁dentist	-11.7882
▁kneel	-11.7898
▁helmets	-11.7916
▁polished	-11.7926
▁reply	-11.7939
▁wandering	-11.7942
▁gaze	-11.7942
▁provided	-11.7944
▁bumpy	-11.7956
▁inch	-11.7957
▁nick	-11.7957
▁celebration	-11.7958
▁interested	-11.7964
▁united	-11.797
▁valued	-11.7985
▁roads	-11.8003
▁wink	-11.8026
▁cracked	-11.8029
▁lollipops	-11.8029
▁pots	-11.8049
▁crabs	-11.8056
▁warn	-11.8057
▁faraway	-11.8064
f	-11.8078
▁winked	-11.808
▁protecting	-11.8089
▁rusty	-11.8091
▁misses	-11.8104
▁balanced	-11.8106
▁june	-11.8112
▁marked	-11.8114
▁logs	-11.8117
k	-11.8128
▁eats	-11.813
▁younger	-11.8138
▁sew	-11.8138
▁signed	-11.8141
▁forehead	-11.8157
▁sophia	-11.8157
▁seems	-11.8157
▁somebody	-11.816
▁single	-11.816
▁chuckled	-11.8169
▁pastries	-11.8174
▁particular	-11.8207
▁cuts	-11.8217
▁granny	-11.8223
▁beads	-11.8231
▁crackers	-11.8233
▁snakes	-11.8234
▁sense	-11.8237
vroom	-11.8241
▁filling	-11.8257
▁copy	-11.826
▁actions	-11.8263
▁blows	-11.8264
▁cough	-11.8275
▁splashes	-11.8284
▁rubs	-11.8288
when	-11.8289
▁paddle	-11.8303
▁knights	-11.8305
bad	-11.8306
▁snuggles	-11.8337
▁itchy	-11.8342
▁directions	-11.8348
▁roots	-11.8357
▁restored	-11.839
▁bend	-11.8393
▁pastels	-11.8396
▁swooped	-11.8396
▁suitcase	-11.8402
▁wiggled	-11.8421
▁keeps	-11.8422
▁fluttered	-11.8427
▁cause	-11.8434
▁kites	-11.8449
▁snowballs	-11.8469
▁entrance	-11.8469
▁christmas	-11.8476
▁jay	-11.8476
▁pause	-11.849
▁awake	-11.8495
▁abbie	-11.8503
then	-11.8505
▁sweets	-11.8507
tommy	-11.8533
▁mickey	-11.8534
▁rings	-11.8537
▁achieve	-11.8545
▁laura	-11.8572
▁cashier	-11.8584
▁delivery	-11.859
▁burst	-11.859
▁nectar	-11.8594
▁disagree	-11.8603
▁gigi	-11.8609
▁froze	-11.8615
▁tallest	-11.8625
▁photos	-11.8638
▁speaking	-11.8641
▁noon	-11.8643
▁neither	-11.8644
▁canâ	-11.8647
▁acting	-11.8659
▁chirp	-11.8664
▁pedals	-11.8672
▁remote	-11.8672
▁stare	-11.8673
▁determination	-11.8675
▁complaining	-11.868
▁darker	-11.8685
▁sparky	-11.8693
▁un	-11.8714
▁roses	-11.8727
▁jess	-11.8728
▁woof	-11.8728
▁chris	-11.8729
▁grand	-11.8732
choo	-11.8736
▁badge	-11.8741
▁sneaky	-11.8765
▁pleasure	-11.8834
▁lung	-11.8847
▁accomplishment	-11.885
▁bars	-11.8852
▁threat	-11.8875
▁liquid	-11.8875
▁owners	-11.8877
fine	-11.8877
▁rob	-11.889
▁pandy	-11.8914
▁lower	-11.8924
▁beyond	-11.8924
▁coloured	-11.8929
▁pam	-11.8929
▁rolls	-11.8951
▁delivered	-11.8959
▁naps	-11.8962
▁expect	-11.8964
▁buzzy	-11.8984
▁stella	-11.8992
▁joking	-11.9002
▁tricked	-11.9014
▁oh	-11.9018
▁videos	-11.9031
▁rule	-11.904
▁glasses	-11.9048
▁mikey	-11.9064
▁hissed	-11.9066
▁emmy	-11.907
▁farther	-11.9081
▁stolen	-11.9084
▁indeed	-11.91
▁tickled	-11.9105
▁tricky	-11.9106
▁scaring	-11.9106
▁reveal	-11.9117
▁insects	-11.912
▁skill	-11.9121
▁cheeks	-11.9125
▁hearing	-11.9136
▁sobbed	-11.9139
▁colored	-11.9141
▁closes	-11.9145
▁performance	-11.9205
▁adding	-11.9228
▁smiley	-11.9236
▁milo	-11.924
very	-11.9246
▁handful	-11.9248
li	-11.9253
▁youâ	-11.9262
▁calmed	-11.9262
▁talented	-11.9279
▁candies	-11.9285
▁sled	-11.9288
▁tangled	-11.9289
▁guy	-11.9298
▁smarter	-11.9302
▁trips	-11.9309
▁scarves	-11.9332
▁batteries	-11.9332
▁sandcastles	-11.9344
▁achieved	-11.9357
▁yum	-11.936
▁cost	-11.9366
▁rockets	-11.9367
▁robert	-11.9369
▁masks	-11.9375
▁darling	-11.9383
▁giraffes	-11.9388
▁leading	-11.9395
▁maya	-11.9401
▁wrist	-11.9414
▁hallway	-11.9424
▁consequences	-11.9429
▁yourselves	-11.943
▁hesitated	-11.9447
▁impossible	-11.9454
▁robbie	-11.9458
▁seven	-11.9461
▁knees	-11.9472
▁peel	-11.948
ling	-11.9481
▁beginning	-11.9502
▁learns	-11.9517
▁mixture	-11.9522
▁outfit	-11.9534
▁secure	-11.9536
▁salty	-11.9546
▁choices	-11.955
▁robby	-11.956
our	-11.9567
▁explorers	-11.9569
▁bumps	-11.9574
▁covers	-11.9581
▁firefighters	-11.9604
▁weeping	-11.9611
▁magnets	-11.9635
z	-11.9642
▁recommended	-11.9644
▁flapping	-11.9654
▁bakery	-11.9655
▁demand	-11.9662
▁gracefully	-11.9666
▁seeker	-11.967
those	-11.9678
▁deserve	-11.9682
▁martha	-11.9692
▁improved	-11.9692
youâ	-11.9694
▁swept	-11.9713
▁abi	-11.9729
▁flutter	-11.9742
▁karen	-11.9751
▁hider	-11.9754
▁stroked	-11.977
▁complained	-11.9774
▁mention	-11.9793
▁third	-11.9804
▁stem	-11.9814
shh	-11.9819
▁talent	-11.9831
▁foods	-11.9842
▁glee	-11.9857
▁teased	-11.9893
▁basement	-11.99
▁travelled	-11.9907
▁lighter	-11.9909
▁parties	-11.9911
▁horizon	-11.9917
next	-11.9919
▁mushrooms	-11.9924
nuck	-11.9925
▁baa	-11.9934
▁clowns	-11.9945
▁aren	-11.9954
▁marker	-11.9955
▁cupcakes	-11.9956
▁ryan	-11.9971
▁heading	-11.9987
▁siblings	-11.9999
▁celebrating	-12
▁tigers	-12
▁shirts	-12.0003
▁wipes	-12.0009
▁fever	-12.0011
▁artist	-12.0018
▁fluttering	-12.0023
▁kicks	-12.0026
▁dots	-12.0035
▁sale	-12.0037
▁mabel	-12.0043
▁puppies	-12.0047
▁bedtime	-12.0047
▁among	-12.0061
▁wrapping	-12.0069
▁snatched	-12.0069
▁families	-12.0072
have	-12.0084
▁jojo	-12.0094
▁paying	-12.0096
▁ruining	-12.0096
▁finn	-12.0098
ew	-12.0103
▁seconds	-12.0115
▁objects	-12.012
▁buying	-12.013
▁knocks	-12.0146
▁rumble	-12.0172
▁dollhouse	-12.0174
el	-12.0197
▁lettuce	-12.02
▁scrubbed	-12.0203
▁intrigued	-12.0207
meow	-12.0215
▁jacky	-12.0228
▁chef	-12.0235
▁birdy	-12.0243
▁treehouse	-12.0252
ch	-12.0253
▁drifted	-12.0263
▁janie	-12.0266
▁peacefully	-12.0266
▁creamy	-12.027
▁uses	-12.0276
▁widened	-12.0285
▁scratches	-12.0292
▁wouldnâ	-12.03
▁source	-12.0311
like	-12.0311
▁yells	-12.0326
rex	-12.0341
▁wound	-12.0366
▁chop	-12.0366
▁behaved	-12.037
▁losing	-12.0377
▁gems	-12.0402
▁cuddly	-12.0403
great	-12.0406
▁rewarded	-12.0441
▁auntie	-12.0453
▁jackets	-12.0455
▁creativity	-12.0456
▁including	-12.0467
▁shrinking	-12.0471
▁bowls	-12.0472
▁drums	-12.0475
▁squeak	-12.0477
▁gina	-12.0487
▁repaired	-12.0497
▁rover	-12.0505
roar	-12.0519
▁needles	-12.0525
▁imagining	-12.0531
▁binky	-12.0539
▁wears	-12.0544
▁potion	-12.0555
▁ralph	-12.0566
▁jackie	-12.0584
▁tasks	-12.0594
▁tiptoed	-12.0604
▁kiki	-12.0608
▁rising	-12.0619
ro	-12.0633
▁decorating	-12.0634
▁willing	-12.064
▁gross	-12.0642
▁tapped	-12.0646
▁sprinkled	-12.065
▁diving	-12.0657
▁players	-12.0661
▁separated	-12.0662
▁grassy	-12.0663
▁sadie	-12.0665
▁maddie	-12.0681
▁minerals	-12.0687
yummy	-12.0689
beep	-12.0703
▁granted	-12.0704
ck	-12.0705
oops	-12.0709
▁click	-12.0711
▁simon	-12.0733
▁creations	-12.0743
ar	-12.0744
▁gardener	-12.0746
▁arrows	-12.0747
▁chefs	-12.0755
ra	-12.0758
▁die	-12.076
▁tissue	-12.0773
▁michael	-12.0777
▁grabbing	-12.0785
▁judy	-12.0789
▁damage	-12.0791
▁limes	-12.0801
▁screwdriver	-12.0812
▁printing	-12.0816
▁hedgehog	-12.082
▁pouted	-12.0824
▁onions	-12.083
▁stomped	-12.0836
▁windy	-12.084
▁backwards	-12.0851
▁hesitant	-12.0855
▁planning	-12.0895
▁stung	-12.0898
▁item	-12.0903
▁unpacked	-12.0905
▁center	-12.0906
▁raindrops	-12.0924
▁grin	-12.0925
▁marie	-12.0936
▁sponge	-12.0949
today	-12.0961
▁slower	-12.0962
▁heavier	-12.0965
▁avoid	-12.0971
▁snowmen	-12.0977
▁beloved	-12.0985
grandma	-12.1009
▁sailboat	-12.1017
▁recipe	-12.1017
▁reflection	-12.1021
▁cousin	-12.1021
▁rocky	-12.1027
▁ray	-12.1028
▁lia	-12.104
▁trampoline	-12.1041
▁peppers	-12.1043
▁curiously	-12.105
▁materials	-12.1054
▁pointy	-12.1056
▁wiping	-12.1081
▁fears	-12.1083
▁growls	-12.1096
▁rustling	-12.1097
▁reason	-12.1105
▁surroundings	-12.1107
▁merry	-12.113
▁audience	-12.1133
▁todd	-12.1137
woof	-12.1154
▁gobbled	-12.1165
▁bluey	-12.1179
▁squares	-12.118
▁stool	-12.1185
▁weekend	-12.119
▁blocking	-12.1205
▁couple	-12.121
▁temperature	-12.1222
▁swans	-12.1224
▁swims	-12.1225
▁pans	-12.1236
▁discussed	-12.1252
▁wobbled	-12.1264
▁praying	-12.1295
lila	-12.13
▁designed	-12.1304
ic	-12.131
▁feast	-12.1316
▁chick	-12.1317
▁neighbours	-12.1324
▁raccoon	-12.1332
▁meg	-12.1335
▁slammed	-12.1345
▁pecked	-12.1345
▁afford	-12.1365
▁slices	-12.1366
▁hitting	-12.1374
▁ache	-12.1384
▁wins	-12.14
▁silent	-12.1406
led	-12.1409
▁duckling	-12.1411
th	-12.1415
ers	-12.1458
▁sparks	-12.1461
▁age	-12.1474
▁helpers	-12.1487
whee	-12.1496
▁remembering	-12.1498
▁ornaments	-12.1517
▁requested	-12.1521
▁sports	-12.1523
ur	-12.1524
▁zara	-12.1527
▁vanilla	-12.1528
▁leaning	-12.158
▁aside	-12.1583
▁adult	-12.1603
▁muscle	-12.1629
all	-12.1644
▁familiar	-12.1645
▁shaped	-12.1647
▁spreading	-12.1655
▁mat	-12.167
▁dr	-12.1676
▁coloring	-12.1681
▁zoey	-12.1681
▁breathed	-12.1698
▁hour	-12.1706
▁raincoat	-12.1714
▁magician	-12.1718
▁skunk	-12.1726
▁greeted	-12.1727
▁dollars	-12.1732
▁amelia	-12.1735
▁snuggle	-12.1747
▁whoever	-12.1751
▁sunflowers	-12.1755
▁twice	-12.1756
▁chosen	-12.1758
h	-12.1765
▁dip	-12.1766
▁prettier	-12.1773
▁warnings	-12.1774
▁thrown	-12.1778
▁forks	-12.178
▁reads	-12.1812
▁daring	-12.1833
▁rivers	-12.1836
▁flight	-12.1838
▁husband	-12.1851
▁zipping	-12.1851
▁enthusiasm	-12.1855
▁touches	-12.1857
▁superheroes	-12.1864
▁spoonful	-12.1877
▁hops	-12.1881
▁grandparents	-12.1887
▁changing	-12.1903
mine	-12.1906
▁rotten	-12.1916
▁wishing	-12.1923
▁forgetting	-12.1935
▁least	-12.1938
▁screws	-12.195
▁moo	-12.1953
▁fido	-12.1964
▁hopeful	-12.1964
▁meals	-12.1973
▁ali	-12.1979
▁davey	-12.1983
▁bodies	-12.1986
▁borrowed	-12.1993
▁toddler	-12.1995
▁sending	-12.2005
▁dreamt	-12.2012
▁mesmerized	-12.2016
▁feeding	-12.2028
▁heroes	-12.2031
on	-12.2039
▁sniff	-12.2057
▁bows	-12.2068
▁nine	-12.2073
▁listens	-12.2081
▁guests	-12.2096
▁flavors	-12.21
▁neatly	-12.2107
▁b	-12.2111
▁sailors	-12.2114
▁handsome	-12.2134
▁buzzed	-12.2135
▁cuddles	-12.2144
▁mo	-12.2147
▁steady	-12.2185
▁wendy	-12.219
ma	-12.2195
▁tunnels	-12.22
▁spikes	-12.2225
▁alien	-12.2234
▁onward	-12.2239
▁delivering	-12.2239
nna	-12.2241
▁months	-12.2254
▁wiggle	-12.2265
▁suffering	-12.2273
▁promises	-12.2274
▁politely	-12.2275
▁prove	-12.2275
▁frosty	-12.2276
▁dived	-12.2287
▁bo	-12.2298
▁sneezing	-12.2334
▁hides	-12.2336
▁ma	-12.2337
▁corners	-12.2343
▁bully	-12.2357
▁throughout	-12.2367
▁warmer	-12.2373
▁plucked	-12.2375
▁unsure	-12.2395
▁poster	-12.2396
▁swords	-12.2397
▁honked	-12.2399
▁plain	-12.2407
▁crashing	-12.2411
▁holly	-12.2411
▁wag	-12.2431
▁rip	-12.2436
▁ruth	-12.2443
▁thud	-12.2448
▁samantha	-12.2453
▁oatmeal	-12.2466
▁seaweed	-12.2471
▁mints	-12.2471
▁refreshing	-12.248
▁zebras	-12.2498
▁geese	-12.2503
▁napkins	-12.2512
ted	-12.2514
▁pens	-12.2515
▁preparing	-12.2517
▁maddy	-12.2518
▁increased	-12.252
listen	-12.2521
▁students	-12.2529
▁crew	-12.254
▁thatâ	-12.2543
▁joining	-12.2545
▁swallowed	-12.2564
▁lungs	-12.2568
▁biting	-12.2572
▁stern	-12.2577
▁ham	-12.2582
man	-12.2621
▁hawk	-12.2633
▁grant	-12.2639
▁begin	-12.2643
▁bessie	-12.2652
▁glued	-12.2654
▁amount	-12.2657
▁toaster	-12.2659
▁wraps	-12.2668
years	-12.2683
▁freedom	-12.269
▁wobbly	-12.2704
▁noses	-12.2705
▁starfish	-12.2709
▁performed	-12.2713
▁postman	-12.2713
▁puppet	-12.2716
▁trembled	-12.2731
▁rushing	-12.2759
▁presses	-12.2766
▁conflict	-12.277
▁g	-12.2773
▁choo	-12.2815
▁whispers	-12.2816
▁resisted	-12.2817
▁dropping	-12.2822
▁scraped	-12.2837
▁watering	-12.2841
▁focused	-12.2852
▁master	-12.2855
▁shops	-12.2857
▁plans	-12.2859
▁adults	-12.286
▁eva	-12.2865
▁panicked	-12.2865
▁bubba	-12.2875
▁waddled	-12.2875
▁joyful	-12.2886
▁softer	-12.2892
sue	-12.29
▁nervously	-12.2903
▁streets	-12.2905
▁firmly	-12.2923
▁instantly	-12.2937
▁firefly	-12.2938
▁encouraging	-12.2947
▁counts	-12.2951
▁chat	-12.2962
▁sniffs	-12.2963
▁frowning	-12.2969
▁robber	-12.2971
▁quarreling	-12.2976
▁megan	-12.3005
▁mina	-12.3023
▁battle	-12.3025
▁napping	-12.3025
▁lifting	-12.3026
▁tested	-12.3029
lucy	-12.303
▁dancers	-12.3054
▁waterfall	-12.3064
▁firefighter	-12.3069
▁worn	-12.3073
▁polar	-12.3088
▁triangles	-12.309
▁slips	-12.3093
▁faded	-12.3094
▁baths	-12.3096
▁lifts	-12.3101
▁scampered	-12.3103
▁katy	-12.3118
▁cushions	-12.3125
▁spat	-12.3143
▁appreciation	-12.3147
▁leads	-12.3165
ca	-12.319
▁pennies	-12.3196
▁elf	-12.3216
▁meanwhile	-12.3221
▁humans	-12.3228
▁drawn	-12.3228
▁twinkled	-12.3229
▁stacked	-12.3236
▁compassion	-12.3236
▁dresser	-12.3244
▁guide	-12.3249
▁respected	-12.3256
▁wiggly	-12.3256
▁leapt	-12.3263
▁fiona	-12.3266
▁flopsy	-12.3271
tmd	-12.329
▁sofia	-12.3301
▁freddie	-12.3301
▁stays	-12.3304
▁forgets	-12.3313
w	-12.3319
te	-12.3327
▁pro	-12.333
▁within	-12.3333
▁tricycle	-12.3356
▁playtime	-12.3365
ce	-12.3371
▁strongest	-12.338
▁bravest	-12.3388
▁stands	-12.3416
▁forgiving	-12.3421
▁overcome	-12.3426
▁wept	-12.3427
▁speedy	-12.3436
▁cosy	-12.3437
▁ease	-12.3447
▁drawers	-12.3448
▁squishy	-12.3457
▁froggy	-12.3467
▁pigeons	-12.347
▁scored	-12.3472
ered	-12.3479
▁grows	-12.3479
▁garbage	-12.3498
▁explorer	-12.3503
▁echoed	-12.3503
watch	-12.351
▁performing	-12.3515
▁sank	-12.3528
▁colder	-12.3535
▁squeezing	-12.3539
▁sweetest	-12.3565
▁behaving	-12.3569
▁avocados	-12.3571
▁playroom	-12.3579
take	-12.3588
▁robin	-12.359
▁flown	-12.359
▁blinking	-12.3603
▁chip	-12.361
▁jonny	-12.3616
▁matters	-12.3624
▁probably	-12.3626
▁pours	-12.364
▁cotton	-12.3647
▁tossed	-12.3647
▁marshmallows	-12.3654
▁base	-12.3676
follow	-12.3701
▁cobwebs	-12.3711
▁healing	-12.3711
▁causing	-12.3719
▁coral	-12.3725
▁twisty	-12.3729
▁ouch	-12.3734
▁shown	-12.3741
▁puzzled	-12.3765
▁passengers	-12.3766
▁tighter	-12.3777
co	-12.3784
▁spices	-12.3784
▁dances	-12.3788
▁louise	-12.3803
▁yielded	-12.3822
▁sewing	-12.3847
▁mae	-12.3859
▁health	-12.3861
▁reversed	-12.3878
ion	-12.3888
▁doorway	-12.3889
am	-12.3899
▁grandchild	-12.3914
▁purr	-12.393
▁aimed	-12.3931
▁ropes	-12.3939
▁nearly	-12.3942
▁necklaces	-12.3946
▁tails	-12.3947
▁fact	-12.3954
▁notes	-12.3956
▁patches	-12.398
▁maisy	-12.3989
▁p	-12.3995
▁shall	-12.4003
▁hoot	-12.4004
▁brushing	-12.4009
▁pumpkins	-12.401
▁surfing	-12.4014
▁instruments	-12.402
▁jan	-12.4022
▁cottage	-12.4027
▁giggles	-12.4036
▁wider	-12.4036
il	-12.4039
▁oysters	-12.4042
▁designs	-12.4043
▁cleaner	-12.4051
▁blast	-12.4055
▁paintbrush	-12.4059
alright	-12.4089
lo	-12.409
▁passports	-12.409
▁clues	-12.4091
▁appreciated	-12.4092
▁action	-12.4094
▁evil	-12.4102
▁halloween	-12.4102
▁refuse	-12.4106
▁pins	-12.4117
▁mermaid	-12.4118
surprise	-12.4122
▁heartbroken	-12.4124
▁loading	-12.4129
▁laying	-12.4132
▁several	-12.4146
so	-12.4148
ry	-12.415
▁blocked	-12.4163
▁rainy	-12.4174
▁ignoring	-12.4178
▁slipping	-12.4178
▁wakes	-12.4184
▁soaking	-12.4187
▁repeating	-12.4188
▁angels	-12.4188
▁sharks	-12.4207
▁twisting	-12.4207
▁anger	-12.4216
▁crossing	-12.4218
ful	-12.4221
▁cloudy	-12.4229
▁mailed	-12.4234
▁de	-12.4251
▁becky	-12.4255
▁grandson	-12.4255
▁fleas	-12.4256
▁whose	-12.4264
▁suggestion	-12.4266
ge	-12.4268
▁gus	-12.428
▁accomplished	-12.43
▁pippa	-12.4316
▁tying	-12.4316
▁lending	-12.4316
▁connected	-12.4322
▁toward	-12.4326
▁noodles	-12.433
▁behavior	-12.4332
▁suffered	-12.4335
▁grip	-12.4338
▁pippin	-12.4338
▁lou	-12.4341
▁pad	-12.4343
▁damaged	-12.4351
▁final	-12.4354
▁spins	-12.4356
▁finishing	-12.4358
▁breathing	-12.4361
▁licking	-12.4363
▁rather	-12.4371
▁buses	-12.4373
▁focus	-12.4387
▁streamers	-12.4389
▁hairdresser	-12.4416
▁results	-12.4421
▁o	-12.4424
▁spidey	-12.4433
▁supported	-12.4438
▁shady	-12.4438
▁ponies	-12.4444
▁surrendered	-12.4447
▁risks	-12.4449
▁awoke	-12.446
▁flo	-12.4468
▁fantastic	-12.4473
ad	-12.4513
▁quieter	-12.4517
▁granddaughter	-12.4517
▁kelly	-12.4523
▁ally	-12.4531
▁daniel	-12.4534
▁frankie	-12.4574
▁stitches	-12.458
▁thorns	-12.4608
▁snowflakes	-12.4611
▁surfboard	-12.4614
▁genie	-12.4631
▁ties	-12.4643
by	-12.4646
▁belts	-12.465
▁drivers	-12.4671
▁sped	-12.4671
▁janey	-12.4692
▁robots	-12.4701
▁terrified	-12.4723
▁wobble	-12.4723
vi	-12.4728
▁kevin	-12.4734
▁definitely	-12.4734
▁bells	-12.4735
▁wisely	-12.4739
ping	-12.4741
▁shovels	-12.4753
▁reminding	-12.4762
▁wally	-12.4767
bob	-12.4772
▁driveway	-12.4792
▁smallest	-12.4802
▁pays	-12.4809
▁student	-12.4818
▁frowns	-12.482
▁correctly	-12.4821
▁newfound	-12.4843
▁swimsuit	-12.4853
round	-12.4853
▁weeds	-12.4859
▁peeled	-12.4869
▁chopped	-12.4874
▁nasty	-12.4879
▁scarecrow	-12.4879
▁warrior	-12.4879
▁squeaked	-12.4892
▁fishes	-12.4898
▁inspired	-12.4903
▁birdhouse	-12.4917
▁straw	-12.492
▁bleed	-12.4928
▁fits	-12.4933
▁kittens	-12.4937
▁simply	-12.4938
▁figures	-12.4963
▁punishment	-12.4968
cat	-12.4969
get	-12.4986
▁stopping	-12.4994
▁expert	-12.5003
▁bracelets	-12.5004
▁response	-12.5009
▁banged	-12.5078
▁afar	-12.5081
▁scent	-12.5081
▁symbols	-12.5087
▁la	-12.5087
▁flipped	-12.5093
▁disturbing	-12.5102
▁tipped	-12.5105
▁lent	-12.5107
▁concert	-12.511
▁masterpiece	-12.511
▁roger	-12.5116
▁decisions	-12.5117
▁travelling	-12.5135
▁pedaled	-12.5149
▁believing	-12.5152
▁footsteps	-12.5152
▁jax	-12.5159
▁stain	-12.5169
▁maker	-12.5169
▁puff	-12.5187
▁darlings	-12.5219
▁encouragement	-12.5231
▁congratulated	-12.5231
▁presented	-12.5233
▁windowsill	-12.5237
▁poppies	-12.5243
▁apologised	-12.5255
▁exercises	-12.5264
▁nodding	-12.5268
▁planting	-12.5271
▁force	-12.5278
▁roars	-12.5281
▁oink	-12.5283
▁arranged	-12.5292
▁elle	-12.5294
five	-12.5297
▁reassured	-12.5304
▁trotted	-12.531
▁reunited	-12.5316
▁covering	-12.5321
▁dory	-12.5323
▁clerk	-12.5329
little	-12.5335
▁business	-12.5353
▁spits	-12.5358
▁vines	-12.5359
▁campfire	-12.5378
us	-12.5382
▁f	-12.5391
▁patty	-12.5396
▁mood	-12.5398
▁edges	-12.54
▁testing	-12.5424
sh	-12.5426
▁chilly	-12.5434
quick	-12.544
▁seller	-12.5451
bang	-12.5453
▁tasting	-12.5454
ies	-12.5454
▁firm	-12.5458
▁speeding	-12.546
dy	-12.5462
▁activity	-12.5464
▁steer	-12.5468
▁smelling	-12.5501
▁bandages	-12.5514
▁delayed	-12.5524
▁yelped	-12.5539
too	-12.5545
▁wrinkled	-12.5546
▁calmly	-12.5546
de	-12.5554
▁nancy	-12.5564
▁comforting	-12.5566
▁paths	-12.5568
▁foxes	-12.557
▁beaver	-12.557
▁amanda	-12.5583
▁sniffing	-12.5585
▁quackers	-12.5602
▁travels	-12.5602
▁type	-12.5613
▁discussing	-12.5624
able	-12.5626
▁except	-12.5633
▁insist	-12.5638
▁burying	-12.5639
▁spies	-12.5646
▁pleaded	-12.5646
▁elly	-12.5646
▁stumble	-12.5651
▁images	-12.5651
▁lies	-12.5656
▁braver	-12.5656
▁officers	-12.5671
▁displayed	-12.5676
▁spills	-12.5692
▁worrying	-12.5696
▁charlotte	-12.5697
▁aware	-12.5697
▁cheers	-12.5708
▁mischievous	-12.5709
▁artwork	-12.5709
▁talks	-12.5713
▁bothering	-12.5714
▁admiration	-12.5722
▁coach	-12.5735
▁grandfather	-12.5736
ier	-12.5738
▁belongings	-12.5741
▁gesture	-12.5757
▁toolbox	-12.5767
▁dragonfly	-12.5812
▁untie	-12.5823
▁experienced	-12.5832
▁backpacks	-12.5847
▁annoyed	-12.5857
▁bitten	-12.5859
ru	-12.5868
▁humming	-12.587
▁solving	-12.5884
un	-12.5888
▁labels	-12.5891
▁cowboy	-12.5893
▁efforts	-12.5919
▁fortunately	-12.5922
▁knots	-12.5922
▁sunscreen	-12.5928
▁gears	-12.5929
▁purpose	-12.5935
▁saturday	-12.5935
ke	-12.5937
▁peas	-12.5941
▁tumbled	-12.5948
▁suits	-12.5953
▁tess	-12.5953
▁material	-12.5959
▁rotting	-12.5969
▁eddie	-12.5974
▁seashells	-12.6001
▁melody	-12.6006
▁charge	-12.6018
▁warmly	-12.6018
▁magazines	-12.6029
▁treated	-12.6031
▁conversation	-12.6031
▁spooky	-12.6033
▁nibbled	-12.6041
▁elsa	-12.6046
▁pandas	-12.6051
▁gazing	-12.6072
▁untied	-12.6087
goodnight	-12.6108
▁eric	-12.6112
▁insisting	-12.6113
▁lina	-12.6113
▁members	-12.6118
▁argument	-12.6125
▁whispering	-12.6144
▁parted	-12.6144
▁environment	-12.6145
▁faith	-12.6153
▁gap	-12.6165
▁vehicles	-12.6165
dear	-12.6168
▁tammy	-12.6172
▁jean	-12.6185
▁sewed	-12.6187
▁helen	-12.6189
▁prayers	-12.6199
▁kit	-12.6208
▁scientist	-12.6211
▁sasha	-12.6218
▁encountered	-12.6219
▁scurrying	-12.6219
▁tilted	-12.6225
▁permitted	-12.6225
▁terry	-12.6252
v	-12.6253
▁joked	-12.6259
▁rudy	-12.6265
▁bathing	-12.6286
▁donkey	-12.6292
▁ships	-12.6294
ation	-12.6298
▁nana	-12.6303
▁guest	-12.6326
▁glittering	-12.6329
▁ava	-12.6334
▁stored	-12.6344
ga	-12.6347
▁beaming	-12.6354
▁forgiveness	-12.6356
leave	-12.6377
▁stroke	-12.64
stay	-12.6404
▁list	-12.6415
nny	-12.6427
▁spy	-12.6428
▁kings	-12.6435
▁otherwise	-12.645
▁tapping	-12.6456
▁customers	-12.6461
▁cleared	-12.6461
▁million	-12.6463
▁flip	-12.6484
▁pupils	-12.6488
▁visitors	-12.6489
▁examining	-12.649
▁sails	-12.6492
▁loops	-12.6497
▁jason	-12.6504
▁ricky	-12.6511
▁honesty	-12.6526
▁packages	-12.6537
▁container	-12.6544
▁convinced	-12.6546
▁dressing	-12.6555
▁izzy	-12.6556
▁chocolates	-12.6559
▁swollen	-12.6559
▁changes	-12.6561
▁sweaty	-12.6573
▁tablet	-12.6577
for	-12.6577
▁bobbie	-12.6589
▁declared	-12.6594
always	-12.6598
▁fishy	-12.6598
▁slowed	-12.6614
▁opposite	-12.6615
▁william	-12.6642
▁characters	-12.6647
▁shrunk	-12.6649
▁tables	-12.6657
▁elsie	-12.6663
▁wounds	-12.6664
▁failed	-12.6671
▁bongo	-12.6706
▁badger	-12.6709
▁goodies	-12.6717
x	-12.6723
▁scratching	-12.6725
▁hike	-12.6725
▁finny	-12.6728
▁guessing	-12.673
▁youngest	-12.6731
▁tidied	-12.6734
▁court	-12.6741
▁crowns	-12.6746
▁address	-12.6747
▁nibble	-12.675
▁spells	-12.6761
▁drift	-12.6767
▁lipstick	-12.6776
▁thanking	-12.6786
▁knives	-12.679
▁inchworm	-12.679
▁scrambled	-12.6797
▁sternly	-12.6805
per	-12.6815
▁diamonds	-12.6819
▁mosquitoes	-12.6827
▁sheets	-12.6827
▁tin	-12.6848
▁beeped	-12.6849
▁aisle	-12.6851
▁seagulls	-12.6855
▁orders	-12.6856
▁tubes	-12.6864
▁meowing	-12.6864
mr	-12.6868
▁lessons	-12.6869
▁faint	-12.6876
▁dripping	-12.6876
ho	-12.6877
▁responsibility	-12.6883
▁ding	-12.6883
▁rescuing	-12.689
▁active	-12.689
▁gasp	-12.6893
po	-12.69
▁anticipation	-12.6904
▁matey	-12.6905
▁questioned	-12.6905
▁decoration	-12.6909
▁bouquet	-12.6912
▁brian	-12.6919
▁responded	-12.6926
▁knocking	-12.6928
▁hoops	-12.6938
▁films	-12.6947
▁smashed	-12.6948
▁signing	-12.6954
▁gratitude	-12.6955
▁obeyed	-12.6957
▁discoveries	-12.6962
▁attacked	-12.697
▁emerged	-12.6984
▁proper	-12.6998
▁rely	-12.702
▁fins	-12.702
▁classmates	-12.7029
▁sill	-12.7033
▁peppa	-12.7034
▁rays	-12.7035
▁manners	-12.7044
▁self	-12.7056
▁manager	-12.7057
▁aim	-12.7063
▁amber	-12.7072
▁survive	-12.7077
▁chipmunk	-12.7078
▁rumbling	-12.71
▁swap	-12.7107
▁crabby	-12.7108
▁tessa	-12.7108
pa	-12.7114
▁bond	-12.7122
▁peck	-12.7133
▁turtles	-12.7136
▁beehive	-12.7144
▁goats	-12.7164
▁elbow	-12.7165
▁gary	-12.7166
▁zoomy	-12.7169
▁olivia	-12.7173
arrr	-12.7177
▁seashell	-12.718
um	-12.7187
▁buckled	-12.7189
▁hunters	-12.7191
▁wealth	-12.7195
nice	-12.72
▁sweep	-12.7202
▁co	-12.7202
▁increasing	-12.7218
▁offering	-12.7225
▁swaying	-12.7226
quack	-12.7231
▁rebecca	-12.7232
▁nurses	-12.7236
▁brightest	-12.7237
▁marking	-12.7237
▁penelope	-12.724
▁munched	-12.724
ee	-12.7246
▁earned	-12.7248
▁ramp	-12.7256
▁purrs	-12.726
▁matilda	-12.7262
▁doorbell	-12.7269
▁novels	-12.7281
▁attack	-12.7282
▁shimmering	-12.7292
▁lowered	-12.7302
j	-12.7306
▁phil	-12.7307
▁prickly	-12.7329
put	-12.7335
▁greet	-12.7357
▁aliens	-12.7359
▁movements	-12.736
▁loses	-12.7365
▁prevented	-12.7372
▁honking	-12.7385
▁routine	-12.7389
▁announced	-12.7389
bo	-12.7426
▁rowed	-12.7431
▁depend	-12.7434
▁switched	-12.7441
▁winding	-12.7446
▁queens	-12.7461
ate	-12.7465
▁deed	-12.7468
some	-12.7468
▁nuzzled	-12.7473
▁flaps	-12.7476
▁designing	-12.7476
▁explains	-12.7479
▁germs	-12.7497
▁poses	-12.7497
as	-12.7501
▁robo	-12.7502
▁aeroplanes	-12.7513
▁heaven	-12.7518
▁swayed	-12.7519
▁tires	-12.7524
▁beam	-12.753
▁taped	-12.7534
▁ashley	-12.7541
at	-12.7551
▁dodged	-12.7557
▁destroying	-12.7562
▁generosity	-12.7564
▁stethoscope	-12.7564
▁laptop	-12.7572
▁glimmering	-12.758
▁customer	-12.7581
▁plug	-12.7595
▁shelly	-12.7601
▁exploded	-12.7603
▁recorder	-12.7608
▁flips	-12.7616
▁observing	-12.7618
▁smelt	-12.7618
out	-12.7625
▁closing	-12.7633
▁awful	-12.7634
▁hum	-12.7657
▁twists	-12.7676
▁tidying	-12.7682
da	-12.7688
▁cupcake	-12.769
▁crops	-12.7691
▁beating	-12.7692
▁ho	-12.7694
▁stamped	-12.7694
▁unpacking	-12.7695
▁scolds	-12.7701
▁seals	-12.7701
▁checkout	-12.7711
▁jilly	-12.7726
▁paddling	-12.7734
cu	-12.7734
▁beautifully	-12.7735
ice	-12.7755
▁nora	-12.7768
less	-12.7768
▁eliza	-12.7773
▁tummies	-12.7773
▁cocoon	-12.7781
▁thankfully	-12.7781
▁freed	-12.779
▁drowned	-12.7797
?!"	-12.7799
▁bonnie	-12.7804
▁swimmer	-12.7812
▁clicked	-12.7814
▁supplied	-12.782
▁expecting	-12.7823
▁robbers	-12.7827
▁gracie	-12.7836
▁veggies	-12.7842
▁bluebird	-12.7887
▁astronauts	-12.7892
▁exploration	-12.7915
hold	-12.7922
▁dino	-12.7923
lu	-12.7928
▁gabby	-12.793
▁peggy	-12.793
▁wade	-12.7931
ding	-12.7944
▁hood	-12.7968
▁cracks	-12.7987
bird	-12.7988
▁rudolph	-12.8002
▁chatted	-12.8002
▁steering	-12.8004
▁conductor	-12.801
▁snug	-12.8037
▁snaps	-12.804
▁baskets	-12.8055
▁cara	-12.8056
▁dock	-12.806
▁troubles	-12.8061
▁rats	-12.8062
▁ghosts	-12.8072
▁applause	-12.8091
someone	-12.8099
▁dollar	-12.811
▁healthier	-12.8139
▁hardest	-12.8147
▁wiser	-12.8148
▁curl	-12.8152
▁belle	-12.8165
▁languages	-12.8165
▁serving	-12.8172
▁bunbun	-12.8172
▁jars	-12.8178
ish	-12.818
▁stretches	-12.8181
▁ba	-12.8182
▁plugged	-12.8196
▁lo	-12.822
▁crawls	-12.8226
▁overhead	-12.8229
▁beast	-12.8229
▁tyler	-12.8237
▁squished	-12.8238
▁swallow	-12.8244
▁wildflowers	-12.8253
ki	-12.8257
▁sprinkle	-12.8258
▁riley	-12.827
▁seas	-12.8272
▁foxy	-12.8277
▁traded	-12.828
▁fascinating	-12.8295
▁syrup	-12.8295
▁shines	-12.8296
▁scooters	-12.8301
▁combed	-12.8304
▁returning	-12.8307
▁dangers	-12.831
▁carla	-12.8311
▁bothered	-12.8324
▁providing	-12.8328
▁zack	-12.8328
ment	-12.833
pe	-12.8337
▁flashing	-12.834
▁wasting	-12.8343
▁peep	-12.8343
▁carries	-12.8351
▁po	-12.8357
▁rosa	-12.8377
▁defeated	-12.8378
▁leap	-12.8382
▁shoo	-12.8386
▁zooms	-12.8399
▁killed	-12.8403
▁reminds	-12.8411
▁flora	-12.8411
▁chill	-12.8418
▁target	-12.8418
▁example	-12.8419
▁tearing	-12.842
▁shorter	-12.8421
▁wooly	-12.8426
▁andrew	-12.8428
▁trusting	-12.8428
▁paula	-12.8444
▁earn	-12.8452
▁dears	-12.8455
▁floats	-12.8457
▁april	-12.8461
ten	-12.8462
▁flashed	-12.8464
▁telescope	-12.8469
▁midnight	-12.8486
▁scrub	-12.8486
▁opinions	-12.8492
▁hotter	-12.8492
▁twenty	-12.8495
▁expression	-12.8503
▁thorn	-12.8511
▁glided	-12.8529
▁tuck	-12.8538
▁applauding	-12.8548
▁grumbled	-12.8554
▁cheat	-12.856
py	-12.8565
▁shorts	-12.857
▁suggest	-12.8577
▁breaths	-12.8583
▁surprising	-12.8587
▁inches	-12.8594
▁sadder	-12.8614
▁k	-12.8621
▁member	-12.8622
▁mila	-12.863
▁icing	-12.8638
▁statues	-12.864
▁raising	-12.8647
▁confidence	-12.8655
▁picnics	-12.8662
▁visitor	-12.8667
▁pops	-12.8669
▁convince	-12.8671
▁melissa	-12.8672
▁annabelle	-12.8673
▁bert	-12.8675
▁weapons	-12.8682
▁mamma	-12.869
▁risk	-12.869
▁dryer	-12.869
▁liam	-12.8699
▁cubs	-12.8703
▁awhile	-12.8707
ba	-12.8708
▁cheated	-12.8742
▁erase	-12.8748
▁munching	-12.8751
molly	-12.8752
kids	-12.8754
open	-12.8764
▁bride	-12.8767
▁petting	-12.877
▁sway	-12.8774
▁liza	-12.878
▁burnt	-12.8792
▁extraordinary	-12.8793
▁blown	-12.8806
ble	-12.8807
▁barry	-12.8811
▁soapy	-12.8815
▁natural	-12.8819
▁odd	-12.8819
▁collapsed	-12.8819
▁stroll	-12.8825
▁inseparable	-12.8828
▁traveling	-12.8831
▁instrument	-12.8839
▁checking	-12.8855
▁experiences	-12.8869
▁miracle	-12.8871
billy	-12.8874
▁adds	-12.888
▁swirl	-12.888
▁born	-12.8889
▁tortoise	-12.8889
keep	-12.8891
▁behaviour	-12.8898
▁grasshopper	-12.8898
▁imaginary	-12.8898
amy	-12.8905
▁teachers	-12.8907
▁meows	-12.8926
▁types	-12.8939
▁puck	-12.895
▁flock	-12.8953
▁relaxing	-12.8954
wa	-12.8956
qu	-12.8965
▁sprang	-12.8977
▁sprout	-12.8985
▁unable	-12.8986
shaped	-12.8988
▁sirens	-12.9002
▁mona	-12.9003
boys	-12.9005
▁lu	-12.9008
▁upside	-12.9012
▁attitude	-12.9021
▁opportunity	-12.9021
▁mommies	-12.9021
▁hunting	-12.9024
▁bomb	-12.903
▁lenny	-12.903
▁trigger	-12.9039
▁violet	-12.9039
▁salon	-12.9039
light	-12.9042
▁distracted	-12.9048
▁conquered	-12.9057
▁peeped	-12.9057
▁companion	-12.9074
▁gradually	-12.9101
▁miller	-12.9114
▁discouraged	-12.9119
▁wriggled	-12.9128
ther	-12.9142
iest	-12.9145
▁rufus	-12.9146
▁whistles	-12.9149
▁bits	-12.9156
▁longest	-12.9157
▁cheaper	-12.9159
▁sometime	-12.9167
▁pinching	-12.9172
▁enemies	-12.9173
▁singers	-12.9189
▁scene	-12.9191
▁martin	-12.9192
▁coolest	-12.9193
▁deserved	-12.9196
▁flowing	-12.92
▁blank	-12.9209
▁rains	-12.9214
▁jody	-12.9218
▁ginger	-12.9226
▁burger	-12.9232
▁clearly	-12.9233
sally	-12.9236
▁countries	-12.9263
▁sprays	-12.9264
▁mac	-12.9272
▁umbrellas	-12.9273
▁moat	-12.9281
sarah	-12.9285
▁burns	-12.9293
▁compete	-12.9298
▁yawning	-12.9305
▁minds	-12.9305
▁cafe	-12.9309
▁reappeared	-12.9318
▁dent	-12.9331
▁rhino	-12.9336
▁jennie	-12.9336
▁chatting	-12.9355
▁glittered	-12.9357
▁chin	-12.9371
bun	-12.9376
▁passes	-12.9384
▁quacking	-12.9387
ous	-12.9393
▁surely	-12.9397
work	-12.9405
▁spilling	-12.9413
▁ability	-12.9428
▁zee	-12.9428
▁oliver	-12.9429
▁al	-12.9436
▁willy	-12.9438
▁cheerfully	-12.9453
▁noticing	-12.9455
▁annoying	-12.9474
▁realizes	-12.9477
▁claw	-12.9478
▁charm	-12.9501
▁mattered	-12.9503
▁joins	-12.9505
▁crystals	-12.9507
▁sincere	-12.951
▁common	-12.9511
▁bounces	-12.9515
▁details	-12.9528
▁enjoyable	-12.9531
▁crowded	-12.9533
▁soundly	-12.9535
▁thicker	-12.9536
▁whined	-12.954
▁local	-12.9548
▁con	-12.9566
▁repairman	-12.9568
mo	-12.9572
▁skies	-12.9586
▁weighing	-12.9594
mon	-12.9599
▁checks	-12.9601
▁forgiven	-12.9606
▁stomp	-12.9612
▁bubbly	-12.9614
▁vibrant	-12.9614
▁shallow	-12.9615
▁rows	-12.9615
▁otters	-12.9618
ched	-12.9618
▁tests	-12.9628
les	-12.9657
abracadabra	-12.9661
▁joanna	-12.9663
▁pills	-12.9678
▁formed	-12.9682
▁astronaut	-12.9698
▁tips	-12.9702
▁strips	-12.9709
▁caw	-12.9728
red	-12.9741
ily	-12.9743
▁washes	-12.9743
▁cherish	-12.9746
▁stall	-12.9746
▁joyfully	-12.9748
▁bicycles	-12.975
▁moonlight	-12.9766
▁races	-12.9769
rr	-12.9777
▁outfits	-12.9781
▁sweaters	-12.9784
▁treasured	-12.98
▁dump	-12.9822
▁aboard	-12.983
▁smoking	-12.9842
▁tick	-12.9847
▁biscuit	-12.9852
▁pepperoni	-12.9852
▁prizes	-12.9853
▁leah	-12.9871
hop	-12.9879
▁certain	-12.988
▁clue	-12.9881
▁excite	-12.9889
▁freezing	-12.9891
▁blonde	-12.9896
▁hummed	-12.99
▁messes	-12.991
woo	-12.9919
▁bundle	-12.992
▁compliment	-12.992
▁hopper	-12.992
▁scattering	-12.9926
▁swirls	-12.9927
ball	-12.9928
▁whales	-12.9937
▁cheating	-12.994
ooh	-12.9941
▁camel	-12.9944
anytime	-12.9944
▁locks	-12.9945
achoo	-12.9945
▁craft	-12.9949
▁satisfaction	-12.9958
va	-12.9958
▁squinted	-12.9959
▁cowboys	-12.9963
▁teams	-12.9969
▁successfully	-12.9975
▁necks	-12.9977
once	-12.9997
▁blushed	-12.9998
▁joan	-13
▁leaking	-13.0005
▁lump	-13.0016
▁calmer	-13.0018
moo	-13.003
zoom	-13.0035
▁coughed	-13.0039
ped	-13.0042
▁positive	-13.0046
▁glittery	-13.0049
▁souvenir	-13.0056
ey	-13.0057
▁jasmine	-13.0066
▁sipped	-13.0066
▁shrug	-13.0067
▁uniforms	-13.0076
fluffy	-13.0082
tweet	-13.0082
▁hangers	-13.0092
▁section	-13.0105
fi	-13.0106
▁scenery	-13.0106
ring	-13.0112
▁meatballs	-13.0115
▁explaining	-13.0117
gra	-13.0128
joe	-13.0132
▁pressing	-13.0133
▁engines	-13.014
▁answering	-13.0145
▁ankle	-13.0155
▁tickling	-13.0155
▁airplanes	-13.0156
▁pout	-13.0163
▁smartest	-13.0173
▁date	-13.0175
▁envelopes	-13.0186
▁scold	-13.0195
▁bruises	-13.0198
▁rubbish	-13.0205
▁unfair	-13.0205
▁wanna	-13.0205
▁welcoming	-13.0215
jimmy	-13.0221
▁slapping	-13.0235
▁pantry	-13.0235
▁haircuts	-13.024
▁fade	-13.0243
ive	-13.0253
▁rewarding	-13.0258
bu	-13.0267
▁hisses	-13.0268
▁newspapers	-13.027
▁fires	-13.0271
▁chickie	-13.0275
▁hundreds	-13.0277
▁cathy	-13.0278
▁teapot	-13.0285
▁shattered	-13.0285
▁understands	-13.0286
▁clip	-13.0288
▁beetles	-13.0288
▁stuffing	-13.0289
▁defeat	-13.0294
▁johny	-13.0296
grandpa	-13.0301
▁burgers	-13.031
▁crocodiles	-13.0326
ard	-13.0335
▁bamboo	-13.0335
▁felix	-13.0345
▁fireflies	-13.0345
▁ketchup	-13.0345
▁ribbit	-13.035
ant	-13.0351
▁rowing	-13.0352
▁intently	-13.0355
honey	-13.0362
▁glance	-13.0366
▁hootie	-13.0376
car	-13.0393
▁situations	-13.0399
▁embarrass	-13.0415
▁playdate	-13.0416
▁talents	-13.0417
▁ballerina	-13.0427
▁sturdy	-13.0427
▁practised	-13.0427
▁seatbelt	-13.0437
▁runner	-13.0441
▁angrily	-13.0447
▁dis	-13.0448
▁watermelon	-13.0468
▁sandpit	-13.0468
▁groaned	-13.0478
▁minded	-13.0482
ny	-13.0483
▁sneezes	-13.0488
▁tempted	-13.0488
ahoy	-13.0488
▁marveled	-13.0488
▁doorstep	-13.0509
▁rinse	-13.0517
▁steven	-13.0522
▁pouch	-13.0529
▁apology	-13.056
▁unfamiliar	-13.056
▁croaked	-13.0561
▁bulbs	-13.0568
▁spoiling	-13.0569
cha	-13.059
▁bruce	-13.0591
▁bubbling	-13.0591
never	-13.0592
nce	-13.0595
▁models	-13.0595
▁energetic	-13.0602
▁clutch	-13.0602
▁microwave	-13.0602
try	-13.0607
▁lookout	-13.0613
▁thump	-13.0613
▁hopscotch	-13.0622
baa	-13.0623
▁weighs	-13.0625
▁finishes	-13.0626
▁height	-13.0628
▁foam	-13.0631
▁chuck	-13.0643
▁playhouse	-13.0643
▁overwhelmed	-13.0643
▁tentacles	-13.0649
▁whoosh	-13.0652
▁exchange	-13.0652
▁stew	-13.0654
▁cells	-13.0658
▁shyly	-13.0676
▁nate	-13.0685
▁tugging	-13.0685
▁stepping	-13.0707
▁mayor	-13.071
▁sweeter	-13.0716
▁toothbrush	-13.0716
▁goodness	-13.073
▁protection	-13.0739
▁hesitation	-13.0748
▁chopping	-13.0748
▁bends	-13.0749
ka	-13.0758
▁shrank	-13.0758
▁speaker	-13.0761
▁mugs	-13.0761
▁strolled	-13.077
▁mumma	-13.0789
▁fifi	-13.079
hurry	-13.0798
▁loyalty	-13.0811
▁underwater	-13.0813
▁peacock	-13.0822
▁mel	-13.0834
▁jon	-13.0837
▁ra	-13.0842
▁ravi	-13.0843
▁teamwork	-13.0844
son	-13.085
▁month	-13.085
▁visits	-13.0852
▁demanding	-13.0857
▁guardian	-13.0864
▁binoculars	-13.0868
▁bolt	-13.0875
▁condition	-13.0875
dog	-13.0878
▁ken	-13.0881
▁disappointment	-13.0886
▁slithered	-13.0886
▁gasps	-13.089
▁tunes	-13.0917
▁petal	-13.092
▁forts	-13.0923
▁nightmares	-13.0928
▁bud	-13.0935
▁pump	-13.0938
▁carol	-13.0941
▁achievement	-13.095
war	-13.095
▁certainly	-13.0952
▁raking	-13.0961
▁gemma	-13.0962
ley	-13.0977
soon	-13.098
▁meaning	-13.0981
▁josie	-13.0982
▁transformed	-13.0993
▁cautious	-13.1004
▁realizing	-13.1004
▁recess	-13.1026
▁randy	-13.1041
▁rewards	-13.1043
▁pounced	-13.1048
▁shave	-13.1059
▁claus	-13.1069
▁differently	-13.1074
▁riverbank	-13.1091
▁recommendation	-13.1091
▁hundred	-13.11
first	-13.11
▁kay	-13.1104
▁en	-13.1111
▁amused	-13.1113
▁frustration	-13.1113
▁rosy	-13.1113
▁unwrapped	-13.1113
danger	-13.1113
▁sweetly	-13.1115
▁spare	-13.1128
▁doggie	-13.113
▁forgives	-13.1132
▁pilots	-13.1144
▁fries	-13.1145
▁rips	-13.1153
▁icky	-13.1156
▁sandra	-13.1161
▁occasion	-13.1166
ya	-13.1171
▁landing	-13.1171
▁traps	-13.1184
which	-13.1188
▁minnie	-13.1189
▁buggy	-13.1189
▁invites	-13.1196
jane	-13.1199
▁temptation	-13.12
▁napped	-13.1201
▁munch	-13.1209
▁patrick	-13.1211
▁snorted	-13.1212
▁cherished	-13.1212
▁allie	-13.1216
rs	-13.1217
fire	-13.1221
▁oscar	-13.1222
▁whimpered	-13.1223
▁thieves	-13.1233
▁choosing	-13.1233
▁writer	-13.1236
▁current	-13.1244
▁nests	-13.1249
▁becomes	-13.126
oo	-13.1268
▁communicate	-13.13
▁mysteries	-13.13
▁thunderstorm	-13.13
▁scares	-13.1329
ul	-13.1345
▁centre	-13.1345
▁electricity	-13.1345
▁blades	-13.1351
▁connect	-13.1355
▁pipes	-13.1378
▁snapping	-13.1379
▁injured	-13.1389
▁lumberjack	-13.1401
▁marley	-13.1412
▁tickles	-13.1414
▁halfway	-13.1423
ff	-13.1427
▁trusty	-13.1428
▁till	-13.1434
benny	-13.1435
hmm	-13.1435
▁boil	-13.1444
▁rita	-13.1446
▁su	-13.145
▁stanley	-13.1457
▁kneeling	-13.1464
▁intelligence	-13.1468
▁keyhole	-13.148
▁coop	-13.1482
▁quest	-13.1491
tie	-13.1494
▁em	-13.1507
▁enemy	-13.1514
▁astonished	-13.1514
her	-13.1517
▁trading	-13.1525
▁sc	-13.1532
▁bambi	-13.1536
▁supporting	-13.1539
jill	-13.1558
▁wilbur	-13.1559
▁level	-13.1571
▁peak	-13.1573
does	-13.1577
▁pinchy	-13.1578
▁alan	-13.1585
▁banging	-13.1592
▁wrench	-13.1613
▁rebuild	-13.1617
▁reversing	-13.1617
▁tantrum	-13.1617
▁servant	-13.1618
▁benches	-13.1619
ned	-13.1641
▁experiment	-13.1641
▁hissing	-13.1645
▁melons	-13.1646
▁prank	-13.1651
▁jets	-13.1651
▁ruff	-13.1658
deal	-13.1659
▁alongside	-13.1664
▁messages	-13.1668
▁foggy	-13.1674
more	-13.1676
▁isnâ	-13.168
▁weaker	-13.1694
jump	-13.1697
▁townspeople	-13.1697
▁lush	-13.1697
▁jodie	-13.1697
▁squeezes	-13.1705
▁wiggling	-13.1709
▁shinier	-13.172
▁levers	-13.1721
▁magically	-13.1737
▁magnify	-13.1744
▁luckiest	-13.1744
▁kenny	-13.1755
▁softened	-13.1757
▁pedaling	-13.1762
shirt	-13.1767
▁unless	-13.1767
▁jobs	-13.1772
▁seasons	-13.1772
▁robe	-13.1774
▁leans	-13.1783
▁swimsuits	-13.1785
pr	-13.1789
▁wiggles	-13.179
▁nicest	-13.1797
▁heels	-13.1799
eat	-13.1802
▁pokes	-13.1803
▁whine	-13.1803
▁mooed	-13.1804
▁gwen	-13.1814
his	-13.1822
ning	-13.1836
der	-13.1836
▁quilt	-13.1837
▁hank	-13.1839
▁chews	-13.1842
tock	-13.1847
▁knit	-13.1849
▁disappearing	-13.1849
▁jonathan	-13.1849
▁styles	-13.186
▁jeremy	-13.1861
▁wolves	-13.1861
▁scrape	-13.1864
▁quarreled	-13.187
▁textures	-13.1894
▁continuing	-13.1896
▁plus	-13.1908
▁admit	-13.1932
land	-13.1933
▁guarding	-13.1939
▁drip	-13.1944
▁digs	-13.1949
▁kyle	-13.1955
▁ziggy	-13.1955
▁guards	-13.1957
▁warmed	-13.1964
colored	-13.1967
▁na	-13.197
▁worst	-13.1979
▁groom	-13.1979
▁colin	-13.1991
▁poisonous	-13.1991
▁boiling	-13.1992
▁bowing	-13.1994
▁revealing	-13.1995
▁flow	-13.2001
▁cooperate	-13.2003
▁sensation	-13.2003
▁concerned	-13.2003
▁compared	-13.2004
▁caterpillars	-13.2017
▁mindful	-13.2018
▁ta	-13.2025
▁bushy	-13.2031
▁fetched	-13.2032
▁crickets	-13.2032
▁acts	-13.2036
▁express	-13.2038
▁improving	-13.2039
▁ro	-13.205
▁character	-13.2056
▁clare	-13.2063
▁lullaby	-13.2063
gu	-13.2065
▁judges	-13.2077
▁structures	-13.2082
▁fluff	-13.2097
▁brad	-13.2098
▁huddle	-13.2099
▁spears	-13.2102
▁bess	-13.2106
▁desperate	-13.2123
▁maisie	-13.2123
▁popping	-13.2123
▁cuddling	-13.2135
▁surprisingly	-13.2136
▁buster	-13.2138
age	-13.2139
teddy	-13.216
▁blade	-13.2165
ated	-13.2177
▁realise	-13.2182
▁wheelbarrow	-13.2184
▁ria	-13.2184
tion	-13.2187
▁allowing	-13.2189
▁harmony	-13.2196
▁canvas	-13.2196
▁oldest	-13.2202
▁disaster	-13.222
▁embarrassing	-13.2222
▁approach	-13.2231
▁soothing	-13.2233
▁storms	-13.2234
▁snowflake	-13.2238
▁''	-13.2242
▁facing	-13.2245
▁croak	-13.2255
▁libby	-13.2257
▁aloud	-13.2257
▁lava	-13.2257
▁da	-13.2265
ze	-13.2266
▁appearance	-13.2269
free	-13.228
▁repairing	-13.2284
▁thumbs	-13.2285
▁drying	-13.2291
jo	-13.2292
▁throne	-13.2294
▁courageous	-13.2294
▁narrow	-13.2306
▁shh	-13.231
▁cooled	-13.2316
▁heavily	-13.2318
▁riddle	-13.2318
▁lucas	-13.2326
▁snip	-13.2333
▁aroma	-13.2343
▁coughing	-13.2348
▁larger	-13.2351
▁thumper	-13.2356
▁boards	-13.2358
▁dashed	-13.2368
▁cracker	-13.2371
▁alley	-13.2372
ber	-13.2378
▁sobbing	-13.238
▁spiky	-13.238
▁deeply	-13.2386
▁accomplish	-13.2392
▁property	-13.2393
▁angrier	-13.2405
bee	-13.2415
▁security	-13.2417
▁braid	-13.243
▁jennifer	-13.243
▁nearer	-13.244
▁facts	-13.245
▁lifeguard	-13.2455
use	-13.2464
▁sooner	-13.2475
▁drag	-13.2475
▁plopp	-13.248
▁nibbles	-13.2487
▁completing	-13.2492
ged	-13.2495
mie	-13.2496
bra	-13.2497
▁crouche	-13.2502
▁hollow	-13.2505
▁habit	-13.253
▁chewy	-13.2532
▁loudest	-13.2541
▁stan	-13.2543
▁hamster	-13.2543
▁kayaking	-13.2543
▁stinky	-13.2555
▁slam	-13.2568
▁waking	-13.2568
▁greg	-13.2568
▁flashes	-13.2569
▁puppets	-13.2572
▁shrugs	-13.2579
side	-13.2586
▁warmest	-13.259
▁circled	-13.2592
▁preschool	-13.2593
▁hips	-13.2593
▁skirts	-13.2599
isn	-13.2604
▁motorcycles	-13.2606
▁incredibly	-13.2606
▁woodcutter	-13.2606
▁copied	-13.2619
▁whipped	-13.2632
▁cages	-13.2632
believe	-13.2633
▁pose	-13.2639
▁attempts	-13.2645
▁flooded	-13.265
nothing	-13.2659
▁sleds	-13.2659
▁builder	-13.2662
▁cousins	-13.2669
▁whe	-13.2675
▁kangaroos	-13.2693
▁pickles	-13.2698
▁calming	-13.2703
▁pleasant	-13.2708
▁gratefully	-13.2713
▁rick	-13.2716
▁hooves	-13.2721
▁sneaks	-13.2722
▁lunchtime	-13.2726
▁scratchy	-13.2727
▁minding	-13.2728
▁tale	-13.273
▁matthew	-13.2734
▁meadows	-13.2746
▁costs	-13.2746
▁dozed	-13.2746
▁glared	-13.2747
▁hatch	-13.2756
▁tow	-13.2759
▁allowance	-13.2759
▁springing	-13.2768
▁computers	-13.2769
▁footprints	-13.2772
▁knobs	-13.2773
tra	-13.2778
▁savor	-13.2785
▁honks	-13.2798
▁juiciest	-13.2798
▁cops	-13.2799
▁blur	-13.2811
even	-13.2813
▁disagreement	-13.2824
▁brains	-13.2835
▁yuck	-13.2842
▁cd	-13.2843
▁soda	-13.2848
▁scoops	-13.2849
▁ticking	-13.2851
▁invitations	-13.2853
▁ostriches	-13.2865
▁ratty	-13.2876
▁tippy	-13.2876
▁movement	-13.289
▁springtime	-13.2904
▁racer	-13.2905
▁hatched	-13.2906
▁ja	-13.2909
▁li	-13.291
only	-13.2915
▁persistence	-13.2915
▁swapped	-13.2915
▁desperately	-13.2915
▁el	-13.2915
mark	-13.2917
▁moons	-13.292
▁seriously	-13.2923
▁bellies	-13.293
▁absolutely	-13.293
▁learner	-13.2931
▁misty	-13.2949
▁bruno	-13.2954
▁glistening	-13.2954
fish	-13.2955
▁theatre	-13.2968
▁squawk	-13.2983
▁purchase	-13.2994
▁booth	-13.2995
▁repeats	-13.3011
▁neigh	-13.304
▁capture	-13.3045
▁lizards	-13.3055
▁compromise	-13.306
▁pollen	-13.306
▁possibilities	-13.306
▁sniffled	-13.306
▁rider	-13.3065
▁ingredient	-13.3072
▁clover	-13.3073
▁slot	-13.3073
▁poop	-13.3076
▁farmers	-13.3086
▁lever	-13.3099
▁tia	-13.31
▁bait	-13.3108
▁strokes	-13.3125
▁freya	-13.3127
▁frisbee	-13.3127
▁bumping	-13.3134
▁mu	-13.3139
▁exhibit	-13.314
▁daily	-13.314
▁untangle	-13.3152
▁lasted	-13.3153
▁blamed	-13.3154
▁mend	-13.316
two	-13.3165
▁distract	-13.3166
▁sparrow	-13.3167
▁wax	-13.3167
▁missy	-13.3169
▁chili	-13.318
▁introducing	-13.318
▁respond	-13.3193
▁caution	-13.3221
▁bathed	-13.3228
▁pounds	-13.323
▁dumb	-13.3234
▁wrapper	-13.3235
▁vi	-13.3242
▁fuss	-13.3248
▁smoothly	-13.3249
ger	-13.3251
▁blooms	-13.3257
▁deciding	-13.3261
▁goggles	-13.3261
▁mesmerised	-13.3261
▁passenger	-13.3261
cy	-13.3269
▁uncovered	-13.3275
▁progress	-13.3288
▁nicky	-13.3292
▁kissing	-13.3293
ky	-13.3293
▁je	-13.3307
▁gummy	-13.3331
▁stacking	-13.3332
▁riches	-13.3334
▁magnificent	-13.3343
▁cooed	-13.3343
shoo	-13.335
▁babysitter	-13.3356
daisy	-13.336
▁rails	-13.336
▁fl	-13.3364
▁vinegar	-13.337
▁headache	-13.3371
▁mate	-13.3372
guess	-13.3374
▁webs	-13.3376
▁cupboards	-13.3381
▁necessary	-13.3384
▁process	-13.3384
▁ju	-13.3388
▁cutest	-13.3396
▁disobeyed	-13.3398
▁obediently	-13.3406
hooray	-13.3408
▁roamed	-13.3412
▁quacks	-13.3416
▁bats	-13.3418
▁yummiest	-13.3425
ol	-13.3429
▁messed	-13.3441
▁laces	-13.3449
▁carly	-13.345
▁allergic	-13.3452
▁undone	-13.3452
▁shooed	-13.3454
ded	-13.346
▁fooled	-13.3467
▁rack	-13.3467
▁challenges	-13.3471
▁fond	-13.348
▁drill	-13.348
▁medals	-13.3486
▁piled	-13.3488
▁gates	-13.349
▁stains	-13.3497
▁trusts	-13.3498
▁hovering	-13.3508
▁sean	-13.3517
▁sleigh	-13.3522
▁crunch	-13.3533
▁shoots	-13.3535
▁confusion	-13.3536
▁joseph	-13.3536
▁rory	-13.3536
▁z	-13.3538
▁groups	-13.3543
▁route	-13.355
▁willow	-13.3551
▁purring	-13.3552
hu	-13.3559
▁sweat	-13.3561
▁olly	-13.3564
bless	-13.3568
▁hare	-13.3576
▁rooster	-13.3577
▁keen	-13.3577
▁gulped	-13.3578
▁widely	-13.3583
▁instincts	-13.3583
▁gooey	-13.3591
▁kinder	-13.3607
▁pecks	-13.3608
▁borrowing	-13.362
▁coconut	-13.3634
▁hadnâ	-13.3635
▁loads	-13.366
▁rinsed	-13.3664
▁greatest	-13.3679
▁nibbling	-13.369
▁silently	-13.3691
▁charged	-13.3693
▁alligators	-13.3708
▁army	-13.3717
▁lunchbox	-13.3733
▁j	-13.3744
▁depths	-13.3747
▁snoring	-13.3747
▁cluck	-13.3749
line	-13.376
▁confidently	-13.3763
▁ladybird	-13.3766
▁ned	-13.3769
iness	-13.377
▁host	-13.3777
▁creak	-13.3787
▁w	-13.3793
▁crafts	-13.3802
▁tempting	-13.3832
playing	-13.3838
▁dee	-13.3852
▁flavour	-13.3853
▁gladly	-13.3858
▁performers	-13.387
▁defend	-13.3875
▁halves	-13.3875
▁squirted	-13.3876
ally	-13.3879
ches	-13.391
▁challenged	-13.3915
▁explode	-13.3917
▁hangs	-13.3921
▁noah	-13.3923
▁musicians	-13.393
▁indoors	-13.3933
▁mustn	-13.3947
▁pace	-13.3956
▁bea	-13.396
▁science	-13.3962
▁carton	-13.3963
▁sacks	-13.3967
▁globe	-13.3977
▁rotted	-13.3977
fived	-13.3982
▁sculpture	-13.3982
▁softest	-13.3983
▁speaks	-13.3994
▁ages	-13.4
▁listener	-13.4011
lly	-13.4018
▁plumber	-13.402
▁ka	-13.4028
▁duckie	-13.403
▁loser	-13.4035
rd	-13.4052
▁flop	-13.4053
▁lydia	-13.4064
▁billie	-13.4067
▁troll	-13.4079
▁galloped	-13.4079
▁hooks	-13.4085
▁doug	-13.4088
▁ne	-13.4091
▁blossom	-13.4093
▁toppings	-13.4094
▁enclosure	-13.4108
friend	-13.4109
▁sa	-13.4114
▁shoelaces	-13.4115
▁imaginations	-13.4139
▁differences	-13.4141
▁zips	-13.4152
▁tastiest	-13.4153
▁tiring	-13.4153
▁sinking	-13.4165
▁furious	-13.4168
▁niece	-13.4168
whoa	-13.417
▁macaroni	-13.4182
▁mousy	-13.4197
▁steered	-13.4199
▁peacefulness	-13.4202
freeze	-13.4203
lung	-13.4203
▁aprons	-13.4208
▁champion	-13.4212
▁grandad	-13.4219
▁state	-13.4242
▁boiled	-13.4243
▁pecking	-13.4244
▁ex	-13.4249
▁jumpy	-13.4252
▁freely	-13.4263
▁soul	-13.4265
gle	-13.427
▁kai	-13.4275
▁hovered	-13.4302
▁lilies	-13.4302
▁comets	-13.4317
▁scrubbing	-13.4317
lia	-13.4327
▁gogo	-13.4351
▁regularly	-13.4355
▁crushed	-13.4362
▁scrunched	-13.4363
▁guesses	-13.4365
▁layer	-13.4365
▁folds	-13.4368
king	-13.4373
▁risky	-13.4379
▁files	-13.4392
▁stroller	-13.4393
▁kara	-13.4396
▁beeping	-13.4401
▁restoring	-13.4408
▁service	-13.4408
▁snuggling	-13.4423
▁brakes	-13.4424
▁jimbo	-13.4425
▁pa	-13.4428
▁compass	-13.4438
▁stirs	-13.4438
▁mashed	-13.4438
▁unicorns	-13.4442
▁hunger	-13.4445
ng	-13.4451
▁biggie	-13.4452
▁ashes	-13.4458
▁earrings	-13.446
▁bro	-13.4462
▁signal	-13.4464
▁lightly	-13.4465
▁department	-13.4469
▁pounding	-13.4469
▁feathered	-13.4474
ging	-13.4476
▁gorgeous	-13.4484
▁shortcut	-13.4484
▁leaped	-13.4485
▁tam	-13.4493
▁dripped	-13.4499
▁spice	-13.4508
▁stripe	-13.451
▁dusted	-13.4515
beware	-13.4516
▁hippos	-13.4532
▁crumb	-13.4539
▁fashionable	-13.4545
▁occasions	-13.4547
▁carefree	-13.4548
bear	-13.4549
▁jumper	-13.4549
▁sly	-13.4549
▁laws	-13.4556
▁caps	-13.4557
▁organised	-13.4561
mmmm	-13.4562
▁softness	-13.4565
▁yay	-13.4566
▁stings	-13.4567
end	-13.4567
right	-13.4568
▁venture	-13.459
▁l	-13.4591
▁horrible	-13.4592
▁jogger	-13.4592
three	-13.4599
▁harvest	-13.4606
print	-13.4614
▁unload	-13.4622
▁mischief	-13.4622
▁valleys	-13.4636
▁blush	-13.464
lie	-13.4644
▁ordering	-13.4647
▁mara	-13.4656
▁bold	-13.467
enthusiastically	-13.4681
▁majestic	-13.4685
▁platform	-13.4685
▁desks	-13.4686
op	-13.4691
rain	-13.4691
▁brightened	-13.4703
▁guided	-13.4705
▁builders	-13.4709
▁ivy	-13.4719
love	-13.4721
▁interest	-13.4725
▁desserts	-13.4726
▁somehow	-13.4736
▁flyer	-13.4752
▁lantern	-13.4753
▁woken	-13.4757
▁shaky	-13.4763
▁willie	-13.4765
jenny	-13.4771
▁caroline	-13.4779
▁length	-13.4779
make	-13.4786
shrink	-13.4787
▁whines	-13.4791
▁designer	-13.4802
ribbit	-13.4802
▁exercising	-13.481
▁clubs	-13.4812
▁mold	-13.4826
▁nightstand	-13.4828
▁automobiles	-13.4829
▁pearls	-13.4839
▁information	-13.4842
▁johnnie	-13.4842
▁unlocking	-13.4845
▁justin	-13.485
blue	-13.485
▁joanne	-13.4858
▁north	-13.4858
▁community	-13.4874
▁royal	-13.4874
▁deserves	-13.488
▁praise	-13.4885
▁pancake	-13.4886
▁audrey	-13.489
▁twelve	-13.489
▁fright	-13.4904
▁susy	-13.4906
▁displaying	-13.4906
▁scowled	-13.4906
▁winners	-13.4911
▁actors	-13.492
▁gail	-13.4922
▁rightful	-13.4937
▁overheard	-13.4938
▁heidi	-13.4938
uff	-13.4946
close	-13.495
▁anybody	-13.4954
▁sweetness	-13.4955
friends	-13.4968
▁grumble	-13.4968
▁cheetah	-13.497
▁cinema	-13.497
▁chains	-13.4973
▁mar	-13.4976
bie	-13.4978
▁proved	-13.4991
clock	-13.4994
▁honeycomb	-13.5002
▁jemma	-13.5002
enjoy	-13.501
▁invisible	-13.5018
▁detective	-13.5034
▁mats	-13.5043
▁deck	-13.5053
▁boarded	-13.5063
▁roam	-13.5066
▁bernie	-13.5083
▁enchanted	-13.5083
▁crispy	-13.5083
▁nudged	-13.5084
cr	-13.5093
▁competing	-13.5115
▁devastated	-13.5115
▁untangled	-13.5117
▁swat	-13.5132
▁isabella	-13.5132
▁panting	-13.5139
▁afterward	-13.5146
▁striking	-13.5148
▁bop	-13.5154
▁entering	-13.5162
▁marcy	-13.5165
▁heights	-13.5172
▁squish	-13.5178
▁disobey	-13.5179
▁dedication	-13.5181
▁taylor	-13.5181
▁solid	-13.5181
▁batch	-13.5186
▁contained	-13.5188
magic	-13.519
▁funniest	-13.5197
▁mound	-13.5197
▁sal	-13.5203
▁delightful	-13.5209
vo	-13.521
▁frightening	-13.5214
▁hates	-13.5216
ahh	-13.5219
▁trailer	-13.522
▁priest	-13.523
▁lighting	-13.5241
▁damp	-13.5245
▁atmosphere	-13.5247
▁dining	-13.5247
▁matty	-13.5252
▁carnival	-13.528
▁zookeepers	-13.5291
▁nations	-13.5296
▁whisk	-13.5296
▁managing	-13.5296
▁polka	-13.5296
▁kathy	-13.5296
▁doves	-13.5302
▁thrill	-13.5311
▁mushy	-13.5313
▁tingle	-13.5314
aw	-13.5316
▁scar	-13.5327
▁farthest	-13.533
▁shimmered	-13.533
▁strum	-13.5346
▁totally	-13.5348
▁wig	-13.5348
▁launch	-13.5362
▁fiercely	-13.5374
act	-13.5377
▁sleeve	-13.5379
▁nuggets	-13.538
▁pudding	-13.538
▁mick	-13.5396
▁greta	-13.5396
off	-13.5412
▁popsicle	-13.5413
▁backward	-13.5413
▁scores	-13.5426
▁alfie	-13.543
▁r	-13.5432
▁pads	-13.5433
▁chicky	-13.5433
▁servants	-13.5445
▁blessed	-13.5447
▁skinny	-13.5448
everything	-13.5457
▁addition	-13.5464
▁presence	-13.5464
▁stormy	-13.5479
▁runny	-13.5488
▁antlers	-13.5498
▁squawked	-13.5499
sleep	-13.5503
▁carousel	-13.5515
▁cruel	-13.5515
▁suspicious	-13.5515
▁rumbled	-13.5521
▁stacks	-13.5524
▁attaching	-13.5531
hoo	-13.5536
▁plank	-13.5537
water	-13.5539
win	-13.5546
▁invention	-13.5549
ance	-13.5556
fly	-13.5557
ary	-13.556
▁juggle	-13.5564
▁blob	-13.5566
▁energized	-13.5566
▁considerate	-13.5566
▁squirt	-13.5582
▁reaction	-13.5583
▁reality	-13.5583
▁birdseed	-13.5583
▁maps	-13.5583
▁tripping	-13.5585
▁goldie	-13.5587
▁everytime	-13.5604
emma	-13.561
▁shots	-13.5611
▁timothy	-13.5617
▁smoother	-13.5617
pin	-13.5619
▁howl	-13.5622
▁autumn	-13.5634
something	-13.5645
ching	-13.5647
▁peels	-13.5647
▁nanny	-13.5651
▁kat	-13.5654
▁hoses	-13.5664
▁bailey	-13.5668
▁twitched	-13.5669
▁helicopters	-13.567
▁correct	-13.567
▁ducklings	-13.5673
lisa	-13.568
▁peeks	-13.5684
▁oars	-13.5697
▁knitting	-13.5703
▁nets	-13.5715
▁seeking	-13.5716
▁homeless	-13.5716
▁commotion	-13.572
▁palms	-13.5735
▁handlebars	-13.5737
▁threatened	-13.5738
▁code	-13.5738
▁dips	-13.575
▁ceremony	-13.5755
▁rags	-13.576
▁taps	-13.5761
▁ripples	-13.577
▁practising	-13.5772
▁scaly	-13.5772
▁desire	-13.5772
▁wrecked	-13.578
▁sickness	-13.5781
▁screech	-13.5789
▁hamburger	-13.579
▁ellen	-13.5791
▁alison	-13.5807
▁workshop	-13.5807
▁sneaking	-13.5818
▁blame	-13.5823
jen	-13.5824
▁hind	-13.5825
▁crusty	-13.5825
▁eve	-13.583
▁atop	-13.5839
▁gliding	-13.5842
▁loneliness	-13.5842
▁spied	-13.5842
▁bri	-13.5844
▁tongues	-13.5858
▁elders	-13.586
from	-13.5871
▁swirled	-13.5879
▁disagreeing	-13.5884
▁se	-13.5892
▁urging	-13.5895
▁chattered	-13.5896
▁kelsey	-13.5912
▁supermarket	-13.5912
▁calf	-13.5913
▁protector	-13.5922
leo	-13.5928
▁campsite	-13.593
▁studies	-13.593
▁tutu	-13.593
▁bounded	-13.593
▁nia	-13.5933
▁whee	-13.5937
▁clothing	-13.5938
▁hoof	-13.595
▁impress	-13.5965
▁rods	-13.5966
▁isla	-13.5972
▁winks	-13.598
▁porridge	-13.5983
▁dustpan	-13.5984
▁loosen	-13.5986
▁miner	-13.5988
▁online	-13.5995
▁supplying	-13.5998
▁injuries	-13.6001
▁neighed	-13.6002
▁stained	-13.6004
▁avoided	-13.6005
▁foreshadowing	-13.6019
▁reckless	-13.6019
▁swirling	-13.6021
ked	-13.6023
▁carrie	-13.6028
room	-13.603
▁connection	-13.6037
tell	-13.6052
▁dawn	-13.6055
▁painful	-13.6058
▁glimmer	-13.6071
▁suggests	-13.6072
▁margaret	-13.6073
▁tumbling	-13.6073
wake	-13.6077
mittens	-13.6085
▁horror	-13.6091
▁trace	-13.6091
▁freshly	-13.61
▁saddle	-13.6106
▁arthur	-13.6109
▁litter	-13.6118
▁jade	-13.6124
mary	-13.6126
▁lurking	-13.6127
▁albert	-13.6127
▁darted	-13.6127
▁possession	-13.6131
▁erupt	-13.6144
▁voyage	-13.6145
▁dives	-13.6152
▁wilma	-13.6163
▁dylan	-13.6181
▁weights	-13.6182
▁resisting	-13.6185
▁pitcher	-13.6185
▁pals	-13.6187
▁rustle	-13.6198
▁stretchy	-13.6198
▁device	-13.6199
▁roller	-13.6206
should	-13.6212
▁gruff	-13.6217
▁gilly	-13.6218
▁aback	-13.6226
elle	-13.6229
par	-13.6231
▁duke	-13.6235
ugh	-13.6236
▁fourth	-13.6237
may	-13.6239
▁fans	-13.6247
▁dodging	-13.6254
▁ada	-13.6257
trust	-13.6267
▁dandelion	-13.6272
▁scott	-13.6272
▁bree	-13.6273
ened	-13.6281
▁sundays	-13.6309
▁pe	-13.631
▁roy	-13.631
▁raked	-13.6314
▁faye	-13.6315
bble	-13.6319
▁hammering	-13.6325
▁vast	-13.6327
▁attendant	-13.6327
▁wicked	-13.6327
way	-13.6328
▁layla	-13.6332
▁solutions	-13.6349
▁snowing	-13.6351
▁twirls	-13.6357
▁discussion	-13.6364
▁clips	-13.6377
▁hurtful	-13.6378
▁arrange	-13.6381
▁lasers	-13.6381
creams	-13.639
everyone	-13.6396
▁fail	-13.6419
▁carriage	-13.6419
▁woodpecker	-13.6419
▁zippy	-13.642
▁carve	-13.643
▁glows	-13.643
▁offers	-13.6448
▁dvd	-13.6457
▁potty	-13.6457
ening	-13.6458
grow	-13.646
▁wetter	-13.647
▁passion	-13.6477
▁tightened	-13.6477
hy	-13.648
▁owning	-13.6485
▁fully	-13.6485
▁musical	-13.6486
▁reappear	-13.6493
▁flappy	-13.6494
▁squirmed	-13.6494
▁exams	-13.6498
▁perch	-13.6499
▁grandkids	-13.6513
▁smoothie	-13.652
▁surrounding	-13.6521
reverse	-13.6526
▁vests	-13.6529
phew	-13.6531
▁gerry	-13.6531
▁slightly	-13.6531
▁nelly	-13.6532
move	-13.6538
▁disgusted	-13.655
▁armor	-13.6564
▁handles	-13.6567
▁godmother	-13.6569
▁pedalled	-13.6588
▁winking	-13.6596
▁embrace	-13.6605
▁sentence	-13.6607
▁africa	-13.6607
▁settling	-13.6607
▁dumped	-13.6609
▁possessions	-13.6621
▁studio	-13.6626
▁soggy	-13.6626
▁performer	-13.6642
▁alexa	-13.6643
▁pounce	-13.6643
▁recipes	-13.6644
▁chant	-13.6645
▁rink	-13.6645
▁puffy	-13.6647
climb	-13.6659
▁stiff	-13.6664
▁honor	-13.6664
▁projects	-13.6666
▁threads	-13.6675
▁villain	-13.6683
▁pairs	-13.6697
▁lauren	-13.6702
▁scientists	-13.6703
▁hideout	-13.6706
▁spoken	-13.6711
▁lolly	-13.6721
▁janice	-13.6721
eww	-13.6721
▁gardening	-13.6724
▁puffed	-13.6724
▁gorillas	-13.6732
▁unkind	-13.674
▁bullet	-13.674
▁racers	-13.6746
gie	-13.6746
▁wobbles	-13.6754
▁petey	-13.6756
▁grandchildren	-13.6759
ship	-13.6767
▁pee	-13.6775
▁charles	-13.6779
▁double	-13.6779
▁plum	-13.6786
▁streaming	-13.6795
▁begun	-13.6798
▁scooping	-13.6826
▁sid	-13.6837
▁unlike	-13.6837
fully	-13.6839
catch	-13.6844
say	-13.6852
▁tours	-13.6853
▁du	-13.6854
▁beg	-13.6876
▁carved	-13.6877
▁lumpy	-13.6877
▁tales	-13.688
rk	-13.6885
star	-13.6886
▁glistened	-13.6895
▁refusing	-13.6895
▁parking	-13.6896
▁floaty	-13.6904
pick	-13.6909
▁nell	-13.6918
smelling	-13.693
silly	-13.693
▁suitcases	-13.6934
▁contentment	-13.6935
▁adventurers	-13.6936
hearted	-13.6937
pic	-13.6938
▁quicker	-13.6942
▁sculptures	-13.6946
▁lexi	-13.6953
▁pavement	-13.6953
▁buckles	-13.6969
▁holidays	-13.6973
▁volcanoes	-13.6976
▁starry	-13.6977
▁witches	-13.6977
▁massages	-13.6987
rub	-13.699
▁obstacles	-13.699
▁slither	-13.6991
▁plow	-13.6993
▁spa	-13.7002
▁squeal	-13.701
▁saxophone	-13.7012
▁shame	-13.7012
ak	-13.7021
▁skate	-13.7022
▁snort	-13.7023
▁nan	-13.7028
▁tan	-13.704
sharing	-13.7048
▁rhyme	-13.7052
▁partner	-13.7052
ye	-13.7061
being	-13.7073
▁accepting	-13.7091
▁benjamin	-13.7091
▁pail	-13.7091
▁arrested	-13.7092
▁ruled	-13.71
▁mailing	-13.7106
▁tulip	-13.7111
▁snarled	-13.7112
▁interrupted	-13.7112
▁payoff	-13.7112
▁spelling	-13.7114
▁spirits	-13.7121
▁plea	-13.713
▁equally	-13.7131
found	-13.7134
▁steaming	-13.7149
ple	-13.7152
▁scolding	-13.7153
caw	-13.7155
board	-13.7168
▁bl	-13.7174
kitty	-13.7208
▁explanation	-13.7211
▁tingling	-13.7211
▁thoughtfully	-13.7214
▁dora	-13.7218
▁otto	-13.7231
▁ni	-13.7234
▁mixes	-13.7238
ced	-13.7243
▁abandoned	-13.7252
▁spanish	-13.7252
▁nightfall	-13.7253
eyed	-13.7253
▁lovingly	-13.7255
▁bruise	-13.7264
lina	-13.7265
▁jaws	-13.7268
▁charity	-13.7272
▁creepy	-13.7272
▁scribbled	-13.7273
▁respecting	-13.7282
▁instant	-13.7292
▁diana	-13.7292
▁hammered	-13.7302
▁independence	-13.7312
▁bobbed	-13.7312
▁grade	-13.7312
▁jeans	-13.7315
▁gia	-13.7318
▁undo	-13.7319
play	-13.7328
▁elizabeth	-13.7333
▁splitting	-13.7339
▁banner	-13.7353
▁terribly	-13.7353
▁dim	-13.7354
▁goo	-13.7354
▁patting	-13.736
men	-13.7369
▁boulder	-13.7373
▁angie	-13.7385
▁trudged	-13.7394
▁fist	-13.7408
▁extremely	-13.7414
▁bethany	-13.7414
▁begs	-13.7427
filled	-13.7432
air	-13.7454
▁speck	-13.7455
▁exchanged	-13.7458
▁curves	-13.7459
▁joyous	-13.746
▁flick	-13.7475
▁juggling	-13.7476
▁chirps	-13.7485
▁brighten	-13.7488
▁grinning	-13.7497
▁ruffled	-13.7497
▁harmful	-13.7497
▁hurrying	-13.7509
▁fran	-13.7514
▁hugo	-13.753
▁ernie	-13.7538
▁innocent	-13.7538
▁quizzes	-13.7559
▁pinecone	-13.7559
▁unloaded	-13.756
▁escaping	-13.758
▁sweeping	-13.7583
boom	-13.7593
▁succeeding	-13.7596
▁fishermen	-13.7601
▁percy	-13.7601
pped	-13.761
▁amen	-13.7616
▁position	-13.7622
▁hoo	-13.7627
▁captured	-13.7645
▁reader	-13.7661
▁monica	-13.7664
▁stomping	-13.7666
pan	-13.7678
▁peculiar	-13.7685
top	-13.769
▁bare	-13.7698
▁yawns	-13.7704
▁complicated	-13.7706
▁dries	-13.7707
▁capes	-13.771
▁lifetime	-13.7713
▁disappears	-13.7717
▁stomachs	-13.7721
▁strummed	-13.7727
▁site	-13.7728
▁handy	-13.7748
▁manny	-13.7751
▁lens	-13.7766
surrender	-13.7767
▁fo	-13.7768
▁proceed	-13.7769
▁panicking	-13.7769
▁guilt	-13.779
▁buddies	-13.7791
▁chunk	-13.7791
▁pendant	-13.7791
▁separating	-13.7791
▁zig	-13.7791
▁journeyed	-13.7806
▁curve	-13.7807
with	-13.7809
▁jasper	-13.7812
▁railing	-13.783
baby	-13.7831
▁compare	-13.7832
▁droplets	-13.7834
rie	-13.7843
▁grains	-13.7848
▁raises	-13.7849
▁swoop	-13.7853
▁pathway	-13.7856
▁richard	-13.7856
zing	-13.787
▁richer	-13.787
careful	-13.7874
▁nellie	-13.7876
ella	-13.7897
▁tucks	-13.7898
▁strict	-13.7898
▁quarrelling	-13.7899
▁squashes	-13.7901
▁kindest	-13.7902
▁yelp	-13.7916
▁concentrated	-13.7921
▁pastor	-13.7925
four	-13.7939
▁concentrate	-13.7939
zip	-13.7942
▁accidently	-13.7946
▁woolly	-13.7949
over	-13.7959
whenever	-13.796
▁nathan	-13.7962
▁maxine	-13.7963
▁sneakers	-13.7963
cool	-13.7963
▁mid	-13.7984
▁wrinkly	-13.7984
▁erin	-13.7984
▁lobby	-13.7984
▁jules	-13.7984
match	-13.7986
▁subjects	-13.8002
▁abilities	-13.8006
▁flakes	-13.8006
▁wriggling	-13.8006
▁scuttled	-13.8006
▁drown	-13.8027
gr	-13.8033
▁dodge	-13.8049
▁tightrope	-13.8049
▁pineapple	-13.805
▁mast	-13.805
▁sung	-13.805
▁hopeless	-13.8052
▁stretcher	-13.8068
wo	-13.8069
▁marty	-13.8071
▁crosses	-13.8077
▁piper	-13.8081
▁report	-13.8091
▁command	-13.8093
▁supportive	-13.8094
▁stares	-13.8094
▁traveler	-13.8101
▁spine	-13.8116
▁angela	-13.8118
▁striped	-13.8127
.'"	-13.8128
▁attempt	-13.8135
▁brake	-13.8136
▁nursery	-13.8139
▁sleepover	-13.8139
▁fixer	-13.8139
hand	-13.8142
▁yielding	-13.8154
▁suck	-13.8157
▁rattle	-13.8158
▁waitress	-13.8159
▁dialed	-13.816
▁flowed	-13.8161
▁sunk	-13.8164
▁moderation	-13.8181
▁stephanie	-13.8181
▁curved	-13.8183
▁lectures	-13.8183
aunt	-13.819
▁minty	-13.8197
▁zigzags	-13.8203
▁glimpse	-13.8204
▁envy	-13.8204
▁pi	-13.8206
▁cutter	-13.8215
▁mow	-13.8218
▁due	-13.8218
▁surrendering	-13.8222
▁unfolded	-13.8226
▁numbered	-13.8227
▁catty	-13.8228
▁crunching	-13.8228
▁liar	-13.8229
▁greed	-13.8247
▁cigarette	-13.8248
▁diaper	-13.8248
▁strolling	-13.8251
▁sealed	-13.8258
▁chicks	-13.8258
girl	-13.8269
pass	-13.827
▁wrappers	-13.827
▁approval	-13.827
▁farewell	-13.827
▁fading	-13.8271
▁h	-13.8273
▁stitched	-13.8282
bby	-13.8284
▁raincoats	-13.8289
▁cheesy	-13.8293
▁roo	-13.8298
▁conversations	-13.8299
▁strap	-13.8311
▁favor	-13.8315
▁grumbling	-13.8315
▁simba	-13.8315
▁overflowing	-13.8316
jim	-13.8336
▁importantly	-13.8336
▁elder	-13.8337
▁stump	-13.8338
▁sis	-13.8341
▁bleeds	-13.8348
▁eli	-13.8355
▁staircase	-13.836
▁nephew	-13.836
▁packet	-13.836
▁scooted	-13.8361
▁anya	-13.8361
▁toni	-13.8362
▁flippers	-13.8365
▁ty	-13.8369
▁playmate	-13.8383
▁leaping	-13.8386
▁chatter	-13.8404
▁snore	-13.8404
▁chugged	-13.8405
▁stray	-13.8405
▁marcus	-13.8405
▁shuffled	-13.8406
▁playfully	-13.8414
▁posters	-13.8424
▁unwrap	-13.8428
▁roxy	-13.8428
▁stunned	-13.8428
▁jenn	-13.8435
▁grownups	-13.8444
▁setup	-13.8444
▁smash	-13.8449
▁glide	-13.8449
▁cinnamon	-13.8451
▁ecstatic	-13.8451
▁ogre	-13.8451
▁rectangle	-13.8451
▁tiara	-13.8451
▁sandals	-13.8451
▁strikes	-13.8454
▁motions	-13.8455
park	-13.8465
▁jingle	-13.8472
▁streak	-13.8474
▁clucked	-13.8475
▁pre	-13.8491
▁firewood	-13.8496
▁sizzle	-13.8496
▁contentedly	-13.8497
▁rustled	-13.8498
▁zap	-13.8507
congratulations	-13.8518
▁thirst	-13.8519
▁snatch	-13.8522
▁boomed	-13.8527
▁vitamins	-13.8532
▁marvel	-13.854
▁fool	-13.8541
▁affect	-13.8542
▁switches	-13.8545
▁forced	-13.8552
▁orchard	-13.8565
▁kneels	-13.8569
gh	-13.8579
▁seated	-13.8585
▁dina	-13.8588
▁collage	-13.8588
▁events	-13.8589
▁cur	-13.8595
day	-13.8596
maker	-13.8612
▁stalks	-13.8622
▁biscuits	-13.8635
▁timidly	-13.8635
▁ballet	-13.8636
▁dodges	-13.8637
▁bead	-13.8657
▁whil	-13.8657
▁warming	-13.8657
▁scruffy	-13.8658
▁training	-13.8666
▁excellent	-13.8668
▁aisles	-13.8668
▁fists	-13.8688
▁tiptoes	-13.8688
▁limits	-13.8702
▁snipped	-13.8704
▁karl	-13.8705
▁timid	-13.8707
brrr	-13.8707
▁curls	-13.8711
ize	-13.8724
▁postcard	-13.8728
▁stunning	-13.8728
▁thinner	-13.8728
▁emmie	-13.8728
▁bled	-13.8729
▁hardworking	-13.873
▁stems	-13.873
▁obstacle	-13.873
▁banks	-13.8738
▁pea	-13.8748
▁ferris	-13.8751
▁paige	-13.8751
▁wondrous	-13.8751
▁sleeves	-13.8752
▁inspected	-13.8752
▁fitting	-13.8756
▁requests	-13.877
▁skelly	-13.8775
▁bobbing	-13.8775
▁salsa	-13.8775
▁fulfilled	-13.8775
▁combing	-13.8785
▁begging	-13.8786
▁cities	-13.8798
blech	-13.8798
▁descended	-13.8798
▁qu	-13.8805
▁appears	-13.8811
▁michelle	-13.8822
▁tickly	-13.8846
▁anxiously	-13.8857
wee	-13.886
pop	-13.8861
▁guidance	-13.8869
▁majesty	-13.8869
▁hanna	-13.887
rot	-13.8872
▁amazingly	-13.8891
▁edward	-13.8893
▁behold	-13.8898
▁exact	-13.8916
▁clam	-13.8917
nnie	-13.8918
▁clothesline	-13.892
bur	-13.8935
▁antennae	-13.8941
turn	-13.8941
▁guarded	-13.8947
andy	-13.8949
▁cracking	-13.895
▁ginny	-13.8964
▁unzip	-13.8964
▁adventurer	-13.8965
▁moe	-13.8967
▁outer	-13.8971
▁deeds	-13.8986
▁skating	-13.8988
▁tablecloth	-13.8988
▁replacing	-13.8988
▁burt	-13.8988
▁drags	-13.8998
▁climber	-13.9001
▁confusing	-13.9012
▁promising	-13.9012
▁wobbling	-13.9012
▁mollie	-13.9012
▁resumed	-13.9013
▁carlos	-13.9013
alice	-13.9013
▁shoreline	-13.9013
▁cursed	-13.9013
▁spotty	-13.9014
▁newly	-13.902
▁delaying	-13.903
▁experiments	-13.9033
▁stylish	-13.9037
▁barney	-13.9038
▁ironing	-13.9038
▁acrobats	-13.9052
▁stu	-13.9057
▁kill	-13.906
▁balcony	-13.9061
▁coo	-13.9067
▁options	-13.9082
▁mason	-13.9085
▁roasted	-13.9086
▁securely	-13.9087
die	-13.9091
stand	-13.9095
▁crust	-13.9108
▁stacy	-13.9109
▁emergencies	-13.9109
▁toothpaste	-13.9109
▁targets	-13.9111
▁croc	-13.9113
▁greater	-13.9124
den	-13.9124
▁crackle	-13.9125
▁background	-13.9133
▁sprung	-13.9133
▁tabby	-13.9134
book	-13.9141
▁sicker	-13.9144
▁fuzz	-13.9157
▁releasing	-13.9158
▁detail	-13.9164
▁lately	-13.918
▁vacuum	-13.9181
▁barky	-13.9182
▁sunburn	-13.9182
▁france	-13.9182
▁bobbi	-13.9182
pray	-13.9186
▁app	-13.9192
ddy	-13.9202
▁captivated	-13.9207
▁thanksgiving	-13.9207
▁louie	-13.9207
coloured	-13.9208
placing	-13.9231
▁pricked	-13.9232
▁tee	-13.9236
▁fanciest	-13.9256
ju	-13.9266
▁choke	-13.9279
▁fixes	-13.9281
▁barbecue	-13.9281
▁harriet	-13.9281
▁recovered	-13.9281
▁jackson	-13.93
▁kaylee	-13.9305
▁glimmered	-13.9307
▁lace	-13.9311
▁props	-13.9317
haw	-13.9317
▁arrest	-13.9329
▁phoebe	-13.933
▁hint	-13.933
▁caf	-13.9331
▁cucumbers	-13.9333
▁dam	-13.9335
ex	-13.9339
frog	-13.9354
▁slurp	-13.9354
▁destruction	-13.9355
▁smoky	-13.9355
▁construction	-13.9355
▁channel	-13.938
▁gertie	-13.938
▁junior	-13.938
▁stripey	-13.9382
▁tu	-13.9382
tea	-13.9383
▁flavours	-13.9397
▁quality	-13.9405
▁cornfield	-13.9405
▁beary	-13.9422
▁cob	-13.9422
▁infection	-13.943
▁eleven	-13.943
▁stephen	-13.943
▁wi	-13.9433
▁gaining	-13.9447
lion	-13.9452
▁squatted	-13.9455
▁appetite	-13.9455
yield	-13.9457
▁slithering	-13.9457
han	-13.9459
▁dong	-13.9459
▁bale	-13.9461
wing	-13.9466
▁roast	-13.9478
▁alicia	-13.948
▁foreshadowed	-13.948
▁melanie	-13.948
▁attract	-13.9481
▁praises	-13.9486
▁grain	-13.9489
▁tar	-13.9489
▁mindy	-13.9491
▁skates	-13.9491
▁ponytail	-13.9506
▁perked	-13.9506
con	-13.9522
▁howling	-13.9525
ug	-13.9525
▁echo	-13.9529
▁goblin	-13.9531
▁blurry	-13.9531
▁heated	-13.9535
miss	-13.9542
new	-13.9547
▁crooked	-13.9556
▁classes	-13.9561
▁carelessly	-13.957
▁bubbled	-13.9575
▁wrists	-13.9579
▁potential	-13.9582
▁receiving	-13.9582
▁session	-13.9582
▁whirled	-13.9583
▁tend	-13.9593
▁stubb	-13.9596
fu	-13.9599
▁conquer	-13.9607
▁challenging	-13.9607
▁haystack	-13.9607
▁jesus	-13.9607
▁bumblebee	-13.9607
▁pinches	-13.9611
▁advantage	-13.9633
▁victorious	-13.9633
▁quiver	-13.9633
▁gulp	-13.9658
▁debbie	-13.9659
▁snuggly	-13.9659
▁plunge	-13.9659
rose	-13.9662
▁dirtier	-13.9662
▁selfishness	-13.9668
▁raisins	-13.967
cle	-13.967
▁ducked	-13.9677
▁flicker	-13.9683
▁cloak	-13.9684
▁involved	-13.9685
▁lacey	-13.9685
▁golfer	-13.9685
▁sweating	-13.9686
mail	-13.9687
ear	-13.9703
▁disappoint	-13.9709
sky	-13.971
▁kaitlyn	-13.971
▁shaker	-13.9714
▁attend	-13.972
▁hobby	-13.9736
▁retrieved	-13.9737
▁embraced	-13.9738
spect	-13.9742
▁lunged	-13.9743
zoo	-13.9744
▁joel	-13.9745
▁blond	-13.9748
▁fifty	-13.9762
▁tastier	-13.9762
▁slime	-13.9763
▁hopefully	-13.9765
▁yo	-13.9772
▁useless	-13.9772
▁bruised	-13.979
▁werenâ	-13.9795
▁regretful	-13.98
▁thirty	-13.9814
▁bullies	-13.9815
▁creaked	-13.9815
▁summertime	-13.9816
▁hurriedly	-13.9819
ppy	-13.9822
▁bending	-13.9827
▁rarely	-13.9834
▁silk	-13.9839
▁magpie	-13.984
▁piggie	-13.9841
▁bask	-13.9842
fla	-13.9849
▁wrinkle	-13.9865
▁becca	-13.9866
▁heaviest	-13.9866
▁coolness	-13.987
▁gloria	-13.9892
▁awaited	-13.9893
▁dash	-13.9896
▁spotless	-13.991
▁accessories	-13.9919
▁injury	-13.9919
▁marco	-13.9919
cheese	-13.9921
▁jose	-13.9922
▁whirring	-13.9945
repeat	-13.9948
▁storybook	-13.9975
▁greeting	-13.9978
▁isabel	-13.9998
▁lego	-14.001
▁beatrice	-14.0025
▁gleaming	-14.0025
▁pingu	-14.0025
▁feared	-14.0029
▁elbows	-14.0029
▁excuse	-14.0031
▁mini	-14.0032
saw	-14.0035
▁raw	-14.0037
▁scrunch	-14.005
▁product	-14.0051
▁cody	-14.0051
▁obliged	-14.0052
drink	-14.0054
▁howled	-14.0059
▁cleverness	-14.0063
▁faithful	-14.0074
▁broomstick	-14.0078
▁cranky	-14.0078
▁ungrateful	-14.0078
▁embarrassment	-14.0078
▁admitted	-14.0078
▁eyeshadow	-14.0078
want	-14.0081
wh	-14.0093
▁walkie	-14.0094
▁dragging	-14.0105
▁glinting	-14.0105
▁jesse	-14.0114
▁rent	-14.0119
▁annabel	-14.0121
▁remaining	-14.0127
lan	-14.013
▁sorrow	-14.0132
▁alfred	-14.0132
▁crashes	-14.0135
▁min	-14.0145
talkie	-14.0146
▁looped	-14.0158
▁hooked	-14.016
boat	-14.0161
▁yelps	-14.0162
▁homemade	-14.0166
▁risen	-14.0167
big	-14.0169
▁lin	-14.0172
▁doubt	-14.0174
au	-14.0174
▁pri	-14.0174
▁inspect	-14.0179
▁pointer	-14.0183
▁afloat	-14.0186
twinkle	-14.0189
six	-14.0189
fin	-14.0193
▁private	-14.0213
▁leftover	-14.0216
▁suggesting	-14.0216
aww	-14.0242
push	-14.0243
stupid	-14.0243
▁surfer	-14.0259
▁bandaged	-14.0265
▁brooke	-14.0267
▁teddies	-14.0267
▁winnie	-14.0267
▁miraculously	-14.0267
▁consider	-14.0294
▁ethan	-14.0295
▁gnome	-14.0295
▁handled	-14.0295
▁driven	-14.0298
▁mustard	-14.0298
sweet	-14.0298
▁gobble	-14.0301
every	-14.0301
▁stalk	-14.0309
▁remov	-14.0313
▁grave	-14.0322
▁tackle	-14.0322
▁chattering	-14.0323
▁endless	-14.0344
flower	-14.0348
▁groan	-14.0349
▁marveling	-14.0351
▁ski	-14.0368
▁breadcrumbs	-14.0377
▁rejoiced	-14.0377
▁silky	-14.0378
splash	-14.0381
▁quitting	-14.0385
▁sundae	-14.0405
vy	-14.0415
ever	-14.0419
▁fired	-14.0428
▁wilt	-14.0431
▁principal	-14.0432
▁sniffling	-14.0433
▁limped	-14.0433
▁tossing	-14.0434
poor	-14.0437
▁invent	-14.0459
▁adopt	-14.0459
▁coast	-14.0459
▁disobedient	-14.046
▁grazing	-14.046
▁erupted	-14.0461
▁mended	-14.0462
▁tending	-14.0462
chirp	-14.0464
lf	-14.0468
▁plump	-14.0478
▁val	-14.048
▁preventing	-14.0483
▁luxurious	-14.0488
▁hippy	-14.0488
▁wilted	-14.0489
grab	-14.049
!'"	-14.0502
▁tighten	-14.0506
▁crisp	-14.0515
▁abbi	-14.0515
▁french	-14.0516
▁coaster	-14.0517
▁crackling	-14.0518
▁owen	-14.052
▁harold	-14.0544
▁trousers	-14.0544
▁flipping	-14.0544
▁zone	-14.0544
▁fondly	-14.0545
▁grandparent	-14.0561
▁angle	-14.0565
▁contented	-14.0566
▁imaginative	-14.0572
▁uniting	-14.0572
▁combined	-14.0572
▁popsicles	-14.0573
▁grownup	-14.0576
wn	-14.0583
▁mari	-14.0589
▁murky	-14.06
▁similar	-14.06
▁whizzed	-14.06
▁scurry	-14.0627
▁creaking	-14.0631
▁ya	-14.0632
▁waddle	-14.0655
▁wriggle	-14.0655
▁gloom	-14.0656
bravo	-14.0657
▁assured	-14.0657
fun	-14.0658
▁agnes	-14.0685
▁comment	-14.0685
▁impact	-14.0685
▁emotion	-14.0714
▁drifting	-14.0718
▁seth	-14.0726
▁colouring	-14.0733
▁wasteful	-14.0735
▁frantically	-14.0742
▁reins	-14.0742
▁trimmed	-14.0742
▁trophies	-14.0742
▁melinda	-14.0745
zzle	-14.0747
▁lea	-14.0759
▁album	-14.0771
▁rupert	-14.0771
▁lara	-14.0771
▁madeline	-14.0772
emily	-14.0776
▁booming	-14.0784
young	-14.0786
▁marshmallow	-14.079
▁trevor	-14.08
▁aaron	-14.08
▁buds	-14.0808
▁pal	-14.0809
▁thousands	-14.0814
▁whining	-14.0828
▁existed	-14.0829
▁oohed	-14.0829
▁pluck	-14.0832
▁nightlight	-14.0838
▁tiredness	-14.0839
▁persuade	-14.0857
▁sylvia	-14.0857
▁skateboard	-14.0857
▁cawed	-14.086
▁feeder	-14.0878
▁locking	-14.0883
▁swish	-14.0885
▁grump	-14.0885
▁mika	-14.0886
▁replies	-14.0886
▁samuel	-14.0886
▁disturbance	-14.0887
▁digger	-14.0887
▁mars	-14.0888
▁spiral	-14.0915
▁cora	-14.0915
▁resolved	-14.0916
▁chuckle	-14.0916
▁apartment	-14.0916
▁sucked	-14.0917
▁normally	-14.0936
tty	-14.0939
▁amusement	-14.0945
▁cartwheel	-14.0945
▁chaos	-14.0945
▁storing	-14.0945
▁liking	-14.0945
▁swell	-14.0954
▁effect	-14.0974
▁resources	-14.0974
▁fate	-14.0974
▁copies	-14.0975
▁forming	-14.0979
ran	-14.0986
▁donna	-14.0987
▁marc	-14.0998
▁crumble	-14.1002
▁achieving	-14.1003
▁adored	-14.1003
handed	-14.101
av	-14.1018
▁clearer	-14.1025
▁glory	-14.1033
▁lynn	-14.1033
▁pixie	-14.1033
▁lacy	-14.1033
▁donate	-14.1034
▁cutters	-14.1034
▁squealing	-14.1034
▁nuzzles	-14.1037
mind	-14.1037
cake	-14.1039
▁ron	-14.104
▁impatiently	-14.1046
▁gestures	-14.1049
▁dial	-14.1062
▁huffed	-14.1063
▁stalls	-14.1064
▁messing	-14.1068
▁rash	-14.1072
rock	-14.1076
▁retrieve	-14.109
▁fizz	-14.1091
▁arriving	-14.1092
▁emptied	-14.1092
▁stumbling	-14.1092
▁mastered	-14.1097
rap	-14.1098
johnny	-14.1098
▁dice	-14.1121
▁cocked	-14.1121
▁sharpen	-14.1128
▁jealousy	-14.1137
▁creep	-14.115
▁crate	-14.1154
▁messier	-14.116
▁squeaking	-14.116
arf	-14.117
▁bless	-14.117
exit	-14.1172
▁mis	-14.1178
▁juan	-14.1181
▁lillie	-14.1182
people	-14.1187
▁owe	-14.12
▁announcement	-14.1211
▁generation	-14.1211
▁hungrier	-14.1211
tick	-14.1219
▁sighing	-14.1227
down	-14.1241
▁paste	-14.1246
life	-14.1246
▁fairly	-14.1251
▁runners	-14.1259
▁diver	-14.1269
▁doorknob	-14.1271
▁flamingo	-14.1271
▁drummer	-14.1271
▁lana	-14.1271
▁hesitantly	-14.1274
▁bid	-14.1275
jake	-14.1277
▁fastened	-14.1278
▁gar	-14.1284
▁boost	-14.1294
▁equal	-14.1301
▁buttercup	-14.1301
▁explosion	-14.1301
▁cupped	-14.1304
▁catcher	-14.1321
long	-14.1326
pitched	-14.1327
▁figur	-14.133
▁sounding	-14.1331
▁caleb	-14.1331
▁insistent	-14.1331
▁lighthouse	-14.1333
bag	-14.1336
▁dials	-14.134
▁quacky	-14.1344
▁flipper	-14.1355
rest	-14.1357
▁opportunities	-14.1362
▁flex	-14.1362
▁rino	-14.1362
check	-14.1369
▁perhaps	-14.1371
▁rung	-14.1384
sammy	-14.1388
▁belief	-14.1392
▁dazzling	-14.1392
bunny	-14.1399
▁pingo	-14.1406
▁clambered	-14.1423
▁clang	-14.1423
▁dishonest	-14.1423
pay	-14.1426
dle	-14.1429
▁trainer	-14.143
▁outdoor	-14.1448
▁blessing	-14.1449
▁mitch	-14.1454
▁sledding	-14.1454
▁fanny	-14.1455
▁croaking	-14.1456
snap	-14.1481
▁moist	-14.1484
▁daddies	-14.1485
▁isabelle	-14.1485
▁gumball	-14.1485
▁sharpened	-14.1487
▁cactuses	-14.1489
▁thoughtfulness	-14.149
▁donut	-14.1501
▁secretly	-14.1504
read	-14.1512
▁blended	-14.1516
▁described	-14.1516
▁sheila	-14.1519
drop	-14.152
▁shaken	-14.1536
nut	-14.154
▁deepest	-14.1543
▁smudge	-14.1545
▁basil	-14.1546
▁unstuck	-14.1546
▁archie	-14.1546
▁lastly	-14.1553
▁paramedics	-14.1568
▁outstretched	-14.1577
▁sissy	-14.1577
▁savannah	-14.1577
▁runway	-14.1585
▁crumpled	-14.1608
▁zog	-14.1608
▁unsafe	-14.1608
▁moan	-14.1609
keeper	-14.1612
▁goalie	-14.1613
▁disc	-14.1639
▁padlock	-14.164
▁comfortably	-14.164
▁tad	-14.1644
cked	-14.1647
green	-14.1647
mother	-14.1647
peter	-14.1648
▁engineer	-14.1648
▁compliments	-14.167
▁celia	-14.1671
▁horrified	-14.1671
▁propeller	-14.1671
▁sprinted	-14.1671
▁rattling	-14.1671
▁moose	-14.1671
▁pest	-14.168
za	-14.1693
ara	-14.1696
▁flush	-14.1702
▁swift	-14.1702
▁fingertips	-14.1702
▁gaby	-14.1702
▁china	-14.1705
▁blessings	-14.1709
▁snorts	-14.1715
bon	-14.172
▁boris	-14.1734
▁tracy	-14.1734
▁unnecessary	-14.1734
▁tacos	-14.1738
▁eater	-14.1738
mimi	-14.1742
making	-14.1742
▁chief	-14.1766
▁philip	-14.1766
▁privacy	-14.1766
▁revenge	-14.1766
▁shaving	-14.1766
▁seahorse	-14.1766
▁slurped	-14.1767
▁prisoner	-14.1767
susie	-14.1774
▁mooing	-14.1774
lola	-14.1774
▁mack	-14.1784
sun	-14.1784
▁cucumber	-14.1793
▁electric	-14.1797
▁waddling	-14.1797
▁superpower	-14.1798
▁ridden	-14.1798
▁mailboxes	-14.1803
▁kernels	-14.1811
toed	-14.1812
▁layed	-14.182
▁reel	-14.1828
▁react	-14.1829
▁walter	-14.1829
▁sari	-14.1829
▁pry	-14.183
▁sipping	-14.183
▁vows	-14.1833
▁overnight	-14.1833
▁jed	-14.1835
children	-14.1837
▁bedside	-14.1838
▁recommending	-14.1845
▁childhood	-14.1861
▁feature	-14.1861
▁grizzly	-14.1861
▁sabrina	-14.1861
▁spinner	-14.1862
▁yanked	-14.1862
▁coiled	-14.1862
▁protective	-14.1863
ann	-14.1874
▁socky	-14.1889
▁tangy	-14.1893
▁echoing	-14.1895
▁dearly	-14.1905
nine	-14.1909
greetings	-14.1923
▁tumble	-14.1924
▁mower	-14.1926
sir	-14.1927
▁critters	-14.1928
▁sprinkler	-14.1929
wheee	-14.193
true	-14.1934
arr	-14.1934
▁whimper	-14.1956
▁supper	-14.1958
▁volunteer	-14.1958
▁peering	-14.1958
▁halo	-14.1959
▁brag	-14.199
▁preparation	-14.199
▁pedro	-14.199
▁cigarettes	-14.1991
box	-14.1994
▁boast	-14.2014
▁critter	-14.202
▁assistant	-14.2022
▁priscilla	-14.2022
▁poof	-14.2027
pilot	-14.2031
fred	-14.2036
▁harshly	-14.2037
▁sugary	-14.205
▁measurements	-14.2055
▁shiniest	-14.2055
▁talons	-14.2055
▁unforgettable	-14.2055
▁squawking	-14.2058
▁brats	-14.2059
▁ladies	-14.2067
▁lucie	-14.2079
▁whirl	-14.2082
▁relationship	-14.2088
▁preferred	-14.2088
▁capable	-14.2089
house	-14.209
▁unwell	-14.2093
coo	-14.2094
bella	-14.2097
▁leafy	-14.2099
▁surge	-14.212
▁alphabet	-14.2121
▁grumpiness	-14.2121
▁dale	-14.2121
▁congratulations	-14.2122
cheer	-14.213
▁dart	-14.2153
▁matchbox	-14.2154
▁spitting	-14.2157
sized	-14.2162
▁interests	-14.2164
▁surfed	-14.217
▁tilts	-14.2176
▁blind	-14.2186
▁terror	-14.2186
▁tigger	-14.2186
▁flopped	-14.2187
▁cents	-14.2187
▁award	-14.2192
bobo	-14.2197
▁sparkler	-14.2202
▁reassuring	-14.2219
▁dennis	-14.222
▁distress	-14.222
▁tidier	-14.222
▁chugging	-14.222
▁drape	-14.222
▁louis	-14.222
▁improvement	-14.222
▁survived	-14.2226
ooo	-14.224
▁daydream	-14.2249
▁combination	-14.2253
▁tadpole	-14.2253
▁bacon	-14.2253
▁sniffles	-14.2253
▁mitts	-14.226
▁wildly	-14.2261
spicy	-14.2262
▁lilli	-14.2266
▁alas	-14.2277
▁collapse	-14.2285
▁antenna	-14.2286
▁confront	-14.2286
▁hairstyle	-14.2286
▁valuing	-14.2286
▁droopy	-14.2287
▁swingset	-14.2288
▁thrilling	-14.2288
▁bay	-14.2289
▁uncover	-14.2319
▁uneasy	-14.232
▁biggy	-14.232
▁unlucky	-14.232
▁cleo	-14.232
▁keyboard	-14.2321
▁forgetful	-14.2326
▁hiked	-14.2326
abi	-14.2329
shut	-14.233
▁heater	-14.2335
▁slim	-14.2351
▁scamper	-14.2352
▁benefit	-14.2353
▁tiles	-14.2353
▁dara	-14.2353
▁fighters	-14.2363
pizza	-14.2363
▁rolly	-14.2381
ddled	-14.2387
▁dizziness	-14.2387
▁steadily	-14.2387
suit	-14.2399
▁tinker	-14.2406
find	-14.2409
▁heather	-14.2421
▁replacement	-14.2421
▁main	-14.2422
▁attacking	-14.2426
▁gadgets	-14.2435
▁wetness	-14.2453
▁curse	-14.2453
▁scuttl	-14.2454
▁territory	-14.2454
▁unzipped	-14.2454
▁beanstalk	-14.2455
▁arch	-14.2467
▁surfers	-14.2472
▁col	-14.2475
▁cassie	-14.2488
▁pruning	-14.2488
▁bibi	-14.2498
▁roles	-14.2504
▁weave	-14.2517
▁overflow	-14.2521
▁gill	-14.2522
▁tradition	-14.2523
▁dismay	-14.2523
▁snowed	-14.2528
▁toughest	-14.2531
▁someplace	-14.2532
poison	-14.2533
zero	-14.2533
▁poisoned	-14.2541
▁appearing	-14.2541
buzz	-14.2544
▁nudge	-14.2555
▁graze	-14.2557
▁laila	-14.2557
▁kari	-14.2557
▁loss	-14.2559
▁ouchy	-14.2562
imagine	-14.2567
▁pickle	-14.259
rob	-14.2591
▁raj	-14.2607
▁squirm	-14.2624
▁ointment	-14.2626
▁slippers	-14.2626
▁pedalling	-14.2627
▁farmhouse	-14.2627
▁wanda	-14.2639
▁scribbles	-14.2653
▁chug	-14.2653
▁adjust	-14.266
▁obedience	-14.266
▁wavy	-14.266
▁headphones	-14.266
▁gleefully	-14.266
▁mostly	-14.267
▁stitching	-14.2683
▁greener	-14.2685
whooshing	-14.2685
▁mash	-14.2688
▁quench	-14.2695
▁cacti	-14.2695
▁macy	-14.2698
slow	-14.2706
▁freckles	-14.2706
▁pawed	-14.2719
▁snatche	-14.2722
▁buyer	-14.2724
▁chomp	-14.2729
▁encounter	-14.2729
▁lavender	-14.273
▁spatula	-14.273
▁volume	-14.273
▁windmill	-14.273
▁attracted	-14.2731
▁beaten	-14.2732
▁hotdog	-14.2736
▁clicking	-14.274
▁fa	-14.2748
hot	-14.275
▁link	-14.2756
▁register	-14.2765
▁floaties	-14.2766
flo	-14.2789
kin	-14.2796
▁pep	-14.2799
▁hazel	-14.28
▁reggie	-14.28
▁unison	-14.28
▁squiggle	-14.28
▁screeched	-14.2802
uncle	-14.2811
▁calmness	-14.2813
▁actor	-14.2814
▁torch	-14.2824
▁reflecting	-14.2836
▁tender	-14.2837
▁permitting	-14.284
rick	-14.2852
▁prick	-14.2869
▁appointment	-14.287
▁scoring	-14.287
▁octopuses	-14.2877
pretty	-14.2882
zag	-14.2885
▁miranda	-14.2906
▁phillip	-14.2906
▁trim	-14.2906
away	-14.2916
ache	-14.2928
▁bandaid	-14.2937
▁guacamole	-14.2942
▁guiding	-14.2942
▁professor	-14.2942
▁sunbeam	-14.2942
▁diane	-14.2942
▁jiggled	-14.2942
▁shyness	-14.2955
▁tougher	-14.2965
▁cra	-14.2977
▁clinic	-14.2977
▁sebastian	-14.2977
▁swipe	-14.2977
▁fossil	-14.2977
▁slope	-14.2977
▁cannon	-14.2978
▁wonderland	-14.2979
▁option	-14.2981
▁limit	-14.2981
▁ripple	-14.2981
▁entertain	-14.3012
▁gizmo	-14.3013
▁hula	-14.3013
bar	-14.3014
▁wildlife	-14.3014
log	-14.3016
▁moss	-14.3017
▁stubbornness	-14.3021
wheeee	-14.3021
quit	-14.3027
lee	-14.3028
tap	-14.3048
▁witness	-14.3048
▁gemstone	-14.3049
▁nikki	-14.3049
▁phrase	-14.3049
▁pure	-14.3049
▁vicky	-14.3049
▁mopping	-14.305
▁bessy	-14.3051
▁sibling	-14.3054
pow	-14.3064
▁sim	-14.3065
set	-14.3066
tree	-14.3069
▁biff	-14.3085
▁unravel	-14.3085
▁cash	-14.3085
▁connie	-14.3085
▁trixie	-14.3085
▁beekeeper	-14.3086
▁firetruck	-14.3087
any	-14.3089
clean	-14.309
▁strutted	-14.3121
▁somersaults	-14.3125
▁buzzes	-14.3126
ena	-14.3127
▁hooted	-14.3127
rty	-14.3132
grace	-14.3136
▁death	-14.3158
▁pasture	-14.3158
▁trina	-14.3158
▁bustling	-14.3158
▁partied	-14.3158
▁per	-14.3158
▁pucker	-14.3159
▁flicked	-14.3159
▁produce	-14.3193
▁hesitate	-14.3193
▁confetti	-14.3194
▁variety	-14.3194
▁surgery	-14.3194
▁zigzagging	-14.3194
▁prey	-14.3195
▁vanishing	-14.3209
▁wheeled	-14.3224
▁loaf	-14.3231
▁sprinkling	-14.3231
▁stroking	-14.3231
▁grasped	-14.3232
power	-14.3266
▁trot	-14.3267
▁arranging	-14.3268
▁arrival	-14.3268
▁carpenter	-14.3268
▁georgie	-14.3268
▁icicle	-14.3268
▁kettle	-14.3268
▁remarkable	-14.3268
▁swished	-14.3269
▁sprouted	-14.3271
▁bendy	-14.3272
mix	-14.3281
▁tailor	-14.3284
▁pang	-14.3287
▁fulfill	-14.3304
▁considered	-14.3306
▁simplest	-14.331
plant	-14.3318
▁cole	-14.333
ub	-14.3333
▁rounded	-14.3336
▁spelled	-14.3338
eek	-14.3341
▁compost	-14.3342
▁repay	-14.3342
▁recognised	-14.3342
▁punched	-14.3342
eee	-14.3344
marry	-14.3355
▁helpfulness	-14.3356
▁scraps	-14.336
▁lili	-14.3365
god	-14.3369
▁grunt	-14.3378
▁carving	-14.3379
▁muttered	-14.3379
▁moley	-14.3385
▁misbehave	-14.3389
▁peeling	-14.3391
toby	-14.3393
zzz	-14.3396
▁granddad	-14.3409
▁basic	-14.3416
▁muffy	-14.3416
▁thaw	-14.3416
▁persisted	-14.3416
▁fearless	-14.3417
▁shooter	-14.3419
yo	-14.3423
▁arc	-14.3427
rise	-14.3452
▁flitting	-14.3454
▁koala	-14.3454
▁monday	-14.3454
▁twinkly	-14.3454
▁whinnied	-14.3454
▁goldfish	-14.3455
▁agreeing	-14.3455
▁meanie	-14.3465
apple	-14.3467
▁blend	-14.3469
dough	-14.347
cent	-14.347
▁core	-14.3474
yippee	-14.3491
▁jemima	-14.3491
▁dying	-14.3491
▁fetches	-14.3494
▁scribble	-14.3498
▁collector	-14.3504
nobody	-14.3505
race	-14.3516
▁gown	-14.3522
▁blake	-14.3529
▁craziest	-14.3529
▁yummier	-14.3529
▁pod	-14.3535
chocolate	-14.3543
toys	-14.3543
▁ooh	-14.3557
stir	-14.3561
▁recogniz	-14.3565
▁buck	-14.3566
▁squint	-14.3566
▁ticklish	-14.3567
▁whizzing	-14.3567
▁tingly	-14.3567
▁grunted	-14.3568
▁crafted	-14.357
▁mal	-14.3573
tina	-14.3575
▁uncertain	-14.3589
▁fruity	-14.3594
▁jessy	-14.3601
▁grasp	-14.3604
▁bumble	-14.3605
▁dangling	-14.3605
▁decrease	-14.3605
▁incident	-14.3605
▁oval	-14.3605
▁lyla	-14.3605
▁friday	-14.3605
▁micky	-14.3606
▁disbelief	-14.3643
▁spinach	-14.3643
▁zigzagged	-14.3643
▁approaching	-14.3646
paper	-14.3657
soup	-14.366
▁abcs	-14.3672
▁perseverance	-14.3681
▁luckier	-14.3682
▁cultures	-14.3688
▁han	-14.3692
▁tweeting	-14.3695
▁smokey	-14.3703
▁jeffrey	-14.372
▁tinkling	-14.372
▁rowboat	-14.372
▁divided	-14.3721
▁pumped	-14.3723
ruff	-14.3726
▁brim	-14.3738
▁forty	-14.3742
▁applied	-14.3758
▁handkerchief	-14.3758
▁sheepishly	-14.3758
▁stressed	-14.3759
piece	-14.3773
ellie	-14.3777
▁shimmer	-14.3794
▁roundabout	-14.3797
▁therapist	-14.3797
▁weaving	-14.3797
▁juggled	-14.38
▁gentleman	-14.3807
▁peg	-14.3834
▁teammates	-14.3836
▁pound	-14.3845
▁meena	-14.3847
▁cure	-14.3863
ron	-14.3871
▁smirk	-14.3875
▁coax	-14.3875
▁brady	-14.3878
▁giddy	-14.3882
▁kimmy	-14.3883
▁eagerness	-14.3885
▁wisest	-14.3885
sign	-14.389
shall	-14.3899
▁dew	-14.3901
▁lilah	-14.3903
came	-14.3909
▁recover	-14.3913
▁punch	-14.3913
▁shirley	-14.3914
▁splat	-14.3914
▁suitable	-14.3916
dinner	-14.393
mandy	-14.3944
▁cheery	-14.3952
▁exist	-14.3953
▁zac	-14.3953
▁felicity	-14.3954
▁pyjamas	-14.3954
▁syringe	-14.3954
▁diligently	-14.3954
▁directly	-14.3954
▁milkshake	-14.3954
▁latch	-14.3954
▁aiden	-14.3954
▁photographer	-14.3954
throw	-14.3969
bobby	-14.397
ahhh	-14.3973
momma	-14.3982
▁limp	-14.3991
▁english	-14.3993
▁snoop	-14.3993
▁kris	-14.3993
▁maple	-14.3993
▁woodland	-14.3995
each	-14.4006
tomorrow	-14.4009
▁difficulty	-14.4016
▁splinter	-14.402
▁rust	-14.4032
▁interrupt	-14.4032
▁huff	-14.4032
▁knead	-14.4033
▁personality	-14.4033
▁official	-14.4033
▁brew	-14.4033
▁snarling	-14.4034
▁frighten	-14.4035
▁cal	-14.4038
treating	-14.4062
mina	-14.4067
▁vera	-14.4071
gotcha	-14.4071
▁casey	-14.4072
▁dorothy	-14.4073
▁frisky	-14.4073
▁leila	-14.4073
▁parcel	-14.4073
▁hummingbird	-14.4073
▁sobs	-14.4082
minded	-14.4084
▁fewer	-14.4101
▁fro	-14.4109
back	-14.4112
▁aquarium	-14.4113
▁fifteen	-14.4113
▁rummage	-14.4113
▁sharon	-14.4113
clap	-14.4118
▁quickest	-14.4119
▁tilt	-14.4125
▁crush	-14.4152
▁scarier	-14.4153
▁benji	-14.4153
▁adjusted	-14.4154
▁reeled	-14.4154
▁shortly	-14.4166
▁finest	-14.4181
fer	-14.4184
liz	-14.4189
▁fortunate	-14.4193
▁fortune	-14.4193
▁perspective	-14.4193
▁whirred	-14.4193
▁whistler	-14.4194
▁crouch	-14.4201
▁citizens	-14.4206
▁oar	-14.4207
organize	-14.421
lost	-14.4212
▁hal	-14.4223
▁bonfire	-14.4234
▁chime	-14.4234
▁despair	-14.4234
▁gigantic	-14.4234
▁silverware	-14.4234
▁clipboard	-14.4234
▁bleated	-14.4234
▁entertained	-14.4235
▁launched	-14.4236
▁erased	-14.424
▁grind	-14.4246
▁heap	-14.4261
▁spectacular	-14.4274
▁foil	-14.4274
▁nighttime	-14.4277
▁errands	-14.4296
▁tucker	-14.4297
pink	-14.4304
izzy	-14.4311
▁motorbike	-14.4315
▁professional	-14.4315
▁drumming	-14.4315
▁gut	-14.4315
▁mag	-14.432
▁copying	-14.433
▁judged	-14.434
▁ram	-14.4347
▁strand	-14.4355
▁unfold	-14.4355
▁recite	-14.4356
▁pounded	-14.4357
▁belinda	-14.4365
pen	-14.4371
covered	-14.4373
buddy	-14.4373
▁cockpit	-14.4397
▁underestimate	-14.4397
▁pressure	-14.4397
▁passage	-14.4398
▁daydreaming	-14.4399
▁whimpering	-14.4399
snowy	-14.4415
▁droop	-14.4438
▁blacksmith	-14.4439
▁inspiration	-14.4439
▁snooze	-14.4439
▁sideways	-14.4439
▁unscrewed	-14.4439
▁flickered	-14.444
▁luca	-14.4454
could	-14.4456
▁cheeky	-14.4461
▁internet	-14.448
▁recently	-14.448
▁shifted	-14.448
▁spool	-14.448
▁spout	-14.448
▁sydney	-14.448
▁tournament	-14.448
▁ditch	-14.448
▁carrier	-14.4482
▁villager	-14.4483
▁peaked	-14.4483
value	-14.4498
▁pew	-14.45
nap	-14.4503
▁steamy	-14.4505
▁twitter	-14.4522
▁harbour	-14.4522
▁smeared	-14.4522
▁mopped	-14.4523
▁clucky	-14.4524
enough	-14.454
▁watchful	-14.4542
share	-14.4545
▁punishing	-14.4547
▁inserted	-14.4564
▁require	-14.4564
▁ashore	-14.4564
▁fizzy	-14.4565
▁joyce	-14.4579
honk	-14.4582
polly	-14.4582
▁sliced	-14.4601
▁dribble	-14.4604
▁cork	-14.4606
▁hideaway	-14.4607
▁cri	-14.4619
▁noodle	-14.4622
promise	-14.4624
▁brightness	-14.4625
fra	-14.4631
▁farmyard	-14.4648
▁luisa	-14.4648
▁melodies	-14.4648
▁subtract	-14.4648
▁pauline	-14.4648
▁reeds	-14.4648
▁longingly	-14.4648
▁silliest	-14.4648
▁paddy	-14.4648
▁lane	-14.4648
▁pouting	-14.4653
warning	-14.4666
order	-14.4667
▁brilliantly	-14.4677
▁nailed	-14.4681
▁exercised	-14.4689
▁console	-14.469
▁fascination	-14.469
▁galaxies	-14.469
▁hobbies	-14.469
▁habitat	-14.469
▁pranced	-14.4691
▁former	-14.4693
▁wary	-14.4714
▁che	-14.4718
▁whir	-14.4724
▁transform	-14.4732
▁frilly	-14.4733
▁scanned	-14.4733
▁stash	-14.4733
▁various	-14.4733
▁jigsaw	-14.4733
▁unplugged	-14.4733
truck	-14.475
math	-14.475
▁patched	-14.4758
lapped	-14.4765
bly	-14.4768
▁suppose	-14.4774
▁concern	-14.4775
▁breathtaking	-14.4775
▁heartbeat	-14.4775
▁medium	-14.4775
▁sensible	-14.4775
▁elves	-14.4775
▁speechless	-14.4775
▁locket	-14.4776
berries	-14.4791
▁policemen	-14.4794
▁brandy	-14.4795
▁raindrop	-14.4797
unch	-14.4816
▁scoot	-14.4816
▁scarlett	-14.4818
▁july	-14.4819
▁margo	-14.482
▁rattled	-14.4821
▁evan	-14.4821
field	-14.4837
whoosh	-14.4837
clo	-14.4845
pip	-14.4857
▁anthony	-14.4861
▁obvious	-14.4861
▁typing	-14.4862
▁posed	-14.4866
▁comp	-14.4896
▁frost	-14.4904
▁connor	-14.4905
▁derek	-14.4905
▁parlor	-14.4905
▁trudy	-14.4905
▁visible	-14.4905
▁kira	-14.4905
▁dreamland	-14.4908
ending	-14.4917
▁neater	-14.4922
cloud	-14.4924
▁lad	-14.4933
ction	-14.4945
▁policy	-14.4948
▁elisa	-14.4948
▁imitate	-14.4948
▁curry	-14.4948
▁paintbrushes	-14.4949
▁limping	-14.4949
wisdom	-14.4968
poppy	-14.4968
hmmm	-14.4972
▁attentive	-14.4992
▁barnyard	-14.4992
▁blaze	-14.4992
▁evie	-14.4992
▁glorious	-14.4992
▁miguel	-14.4992
▁unharmed	-14.4992
▁wailed	-14.4992
▁cradle	-14.4992
▁jada	-14.4992
▁handyman	-14.4992
▁lioness	-14.4992
▁boldly	-14.4993
▁addressed	-14.4997
▁total	-14.501
▁poo	-14.5029
▁dean	-14.5036
▁casting	-14.5055
aaaah	-14.5055
shift	-14.508
▁beaches	-14.5083
▁squashed	-14.5084
▁kip	-14.5086
▁smoothness	-14.5096
neigh	-14.51
▁clarissa	-14.5124
▁eldest	-14.5124
▁lightbulb	-14.5124
▁natalie	-14.5124
▁underwear	-14.5124
▁rosemary	-14.5126
▁flooding	-14.5153
▁chemical	-14.5168
▁illness	-14.5169
▁grate	-14.5181
▁doghouse	-14.5183
▁bingo	-14.5191
▁describe	-14.5212
▁brow	-14.5212
▁soothe	-14.5212
▁bound	-14.5212
▁speech	-14.5213
working	-14.5232
mira	-14.5235
▁crop	-14.5235
▁showered	-14.524
▁transport	-14.5258
▁washcloth	-14.5258
▁franny	-14.5258
▁grumpier	-14.5258
▁pleading	-14.5258
▁outsmart	-14.5302
▁predator	-14.5303
▁bristles	-14.5303
▁funnier	-14.5303
▁naomi	-14.5303
▁porcupine	-14.5303
▁waggy	-14.5303
▁title	-14.5303
▁crumbled	-14.5305
▁mightiest	-14.5311
perfect	-14.5324
▁thousand	-14.5326
▁numb	-14.5348
▁betrayed	-14.5348
▁amelie	-14.5348
▁trespassing	-14.5349
▁twitching	-14.5349
▁scrap	-14.5353
eight	-14.5367
▁bared	-14.5367
banana	-14.537
▁swarm	-14.5394
▁cycle	-14.5394
▁flagpole	-14.5394
▁della	-14.5394
▁sixty	-14.5394
▁clubhouse	-14.5394
▁blender	-14.5394
▁reflected	-14.5395
▁weaved	-14.5396
▁slug	-14.5404
spring	-14.5416
▁anniversary	-14.5439
▁kiwi	-14.5439
▁eerie	-14.5439
▁smudged	-14.5442
▁harvested	-14.5442
hide	-14.5455
number	-14.5461
jam	-14.5462
▁chore	-14.5464
▁prop	-14.5475
▁gallop	-14.5483
▁apologizing	-14.5485
▁referee	-14.5485
▁peddled	-14.5486
▁blinky	-14.5502
▁helplessly	-14.5507
rabbit	-14.5508
▁dotty	-14.5512
nic	-14.5526
▁bubblegum	-14.5531
▁cabbage	-14.5531
▁massive	-14.5531
▁tanya	-14.5531
▁shoebox	-14.5532
▁upcoming	-14.5547
berry	-14.5548
ash	-14.555
mouse	-14.5554
moon	-14.5556
▁earring	-14.5558
▁recycle	-14.5578
▁storyteller	-14.5578
▁trustworthy	-14.5578
▁jenkins	-14.5578
▁tagged	-14.5579
▁racecar	-14.5585
▁hunted	-14.5592
teacher	-14.56
rainbow	-14.56
▁victor	-14.5623
▁pigtails	-14.5624
▁public	-14.5624
▁stacey	-14.5624
▁treetops	-14.5624
▁meaningful	-14.5624
▁trader	-14.5631
ollie	-14.5645
peace	-14.5647
dance	-14.5652
▁role	-14.5658
annie	-14.5659
▁practise	-14.5669
▁cooperative	-14.5671
▁fiery	-14.5671
▁observant	-14.5671
▁splattered	-14.5671
▁technique	-14.5671
woah	-14.5671
▁produced	-14.5673
▁skated	-14.5674
▁seaside	-14.5675
▁armour	-14.5682
▁bossed	-14.5691
worm	-14.5694
owl	-14.5695
hole	-14.5697
tag	-14.5705
▁fabulous	-14.5718
▁patrol	-14.5718
▁marla	-14.5718
▁chessboard	-14.5718
▁chalkboard	-14.5718
▁south	-14.5719
bow	-14.5728
weigh	-14.5745
▁shoelace	-14.5745
hair	-14.5752
▁lil	-14.5764
▁merrily	-14.5765
▁slingshot	-14.5765
▁nala	-14.5765
▁fee	-14.5773
▁cleverest	-14.5789
▁ignorance	-14.5812
▁revved	-14.5812
▁hired	-14.5813
▁tik	-14.5814
▁boop	-14.5814
▁lure	-14.5819
elephant	-14.5836
sounds	-14.5836
dead	-14.5836
fighting	-14.5837
▁grilled	-14.5848
▁sparked	-14.585
▁involve	-14.5859
▁client	-14.586
▁croissant	-14.586
▁shawn	-14.586
▁butcher	-14.586
▁transformation	-14.586
▁demonstrated	-14.586
▁burp	-14.5861
▁beady	-14.5862
aaa	-14.5862
▁clucking	-14.5864
▁mattresses	-14.5866
▁blasted	-14.5868
walk	-14.5883
▁manner	-14.5889
▁tink	-14.5895
▁boundaries	-14.5908
▁hilarious	-14.5908
ified	-14.5909
▁barb	-14.5916
george	-14.5932
▁swooping	-14.5958
hush	-14.5959
▁heeded	-14.5959
oooo	-14.5965
▁lori	-14.5979
▁jazzy	-14.5993
▁convincing	-14.6004
▁cooperation	-14.6004
▁eachother	-14.6004
▁extinguisher	-14.6004
▁fancier	-14.6004
▁taffy	-14.6004
▁chad	-14.6004
▁organ	-14.6004
▁speckled	-14.6004
▁titi	-14.6004
▁glossy	-14.6005
▁judgement	-14.6006
▁cooing	-14.6007
▁creaky	-14.6007
▁politeness	-14.6019
brush	-14.6028
fragile	-14.6029
▁weakly	-14.6041
▁disease	-14.6053
▁fairytale	-14.6053
▁responsibly	-14.6053
▁pierre	-14.6053
▁dec	-14.6053
▁smashing	-14.6055
▁rancher	-14.6084
▁delicately	-14.6085
▁document	-14.6102
▁marvin	-14.6102
▁rina	-14.6102
▁system	-14.6102
▁toppled	-14.6102
zagged	-14.6102
▁easter	-14.6109
sell	-14.6144
▁honour	-14.6151
▁scout	-14.6151
▁soothed	-14.6152
▁rushes	-14.6155
▁avoiding	-14.6165
butterfly	-14.6176
coco	-14.6176
▁untidy	-14.62
▁realising	-14.62
▁snored	-14.6203
▁sharpening	-14.6204
▁ripest	-14.6206
▁ladle	-14.6206
▁skilled	-14.6213
oink	-14.6225
▁soot	-14.623
▁bandana	-14.6249
▁briefcase	-14.6249
▁furthest	-14.6249
▁represent	-14.6249
▁research	-14.6249
▁lance	-14.625
▁lula	-14.625
▁lowest	-14.6259
▁rollie	-14.6264
▁deb	-14.6267
▁avail	-14.6283
▁reflect	-14.6297
▁porky	-14.6299
▁threatening	-14.6299
▁exception	-14.6299
▁pippy	-14.63
▁lala	-14.63
▁scowling	-14.63
rip	-14.6302
grrr	-14.6337
▁dozen	-14.6349
▁boredom	-14.6349
▁flowerbed	-14.6349
▁dinah	-14.6349
▁uneven	-14.6349
▁overcoming	-14.6354
▁complaints	-14.6357
oooh	-14.6372
mister	-14.6376
▁jin	-14.6378
▁prefer	-14.6399
▁georgia	-14.6399
▁cheep	-14.6399
▁huh	-14.64
▁hiking	-14.64
▁cory	-14.64
▁shoved	-14.6401
▁barkley	-14.6401
mike	-14.6426
fair	-14.6443
▁appreciating	-14.645
▁maggy	-14.645
▁mumbled	-14.645
▁splish	-14.645
▁agent	-14.645
▁lord	-14.645
▁leashes	-14.6458
lena	-14.6465
tac	-14.647
lash	-14.6476
count	-14.6477
quir	-14.649
▁downstream	-14.6501
▁fritz	-14.6501
▁hilda	-14.6501
▁hungrily	-14.6501
▁keith	-14.6501
▁memorable	-14.6501
▁stuart	-14.6501
▁trinket	-14.6501
▁nicole	-14.6501
▁madder	-14.6505
click	-14.6528
spider	-14.6528
almost	-14.6528
james	-14.6528
paul	-14.653
▁mario	-14.6547
▁steph	-14.6547
▁courtyard	-14.6552
▁devoured	-14.6552
▁eternity	-14.6552
▁unroll	-14.6552
▁fiddle	-14.6552
▁payment	-14.6555
▁fluffed	-14.6555
▁searches	-14.6565
made	-14.6566
pie	-14.6591
▁choking	-14.6603
▁flesh	-14.6603
▁inquisitive	-14.6603
▁passerby	-14.6603
▁quarter	-14.6603
▁recycling	-14.6603
▁daycare	-14.6603
▁straightened	-14.6603
▁sulked	-14.6604
under	-14.6615
victory	-14.6631
responsibilities	-14.6654
▁garlic	-14.6654
▁kerry	-14.6654
▁choppy	-14.6655
▁persevered	-14.6655
▁backseat	-14.6655
▁strive	-14.6656
▁flickering	-14.6657
polish	-14.6682
kick	-14.6688
gging	-14.6691
▁assemble	-14.6706
▁grime	-14.6706
▁opal	-14.6706
▁margie	-14.6706
▁mattie	-14.6709
▁julian	-14.673
anything	-14.6735
dragon	-14.6735
▁tiptoe	-14.6742
▁gran	-14.6744
▁marsh	-14.6749
▁crevice	-14.6758
▁cafeteria	-14.6758
▁elliot	-14.6758
▁kylie	-14.6758
▁lewis	-14.6758
▁tragedy	-14.6758
▁adventuring	-14.6758
▁altogether	-14.6758
▁sidelines	-14.6758
▁galloping	-14.676
bug	-14.6785
release	-14.6787
▁dilly	-14.6811
▁nevertheless	-14.6811
▁sprite	-14.6811
▁tattered	-14.6811
▁virus	-14.6811
▁zane	-14.6811
▁racket	-14.6811
▁teacup	-14.6811
▁priceless	-14.6812
rrrrr	-14.6818
▁fitted	-14.6823
▁twitch	-14.6861
▁mallory	-14.6863
▁raspberry	-14.6863
▁dashboard	-14.6863
▁trotting	-14.6864
▁outsmarted	-14.6864
▁relaxation	-14.6866
excellent	-14.6892
▁pil	-14.6905
▁harvey	-14.6916
▁radiat	-14.6916
▁duty	-14.6916
▁kaya	-14.6919
▁ticked	-14.6921
▁replying	-14.6937
▁rescuer	-14.694
▁healer	-14.6945
▁pretzel	-14.6969
▁scariest	-14.697
▁sonia	-14.697
▁spinny	-14.6972
▁tucking	-14.6977
opera	-14.6978
▁truthful	-14.6988
hang	-14.699
cookie	-14.6999
pee	-14.7
wash	-14.7003
plop	-14.7022
▁dragonflies	-14.7023
▁drunk	-14.7023
▁fragrance	-14.7023
▁intruder	-14.7023
▁puss	-14.7023
▁shaping	-14.7023
▁temper	-14.7023
ably	-14.7028
post	-14.7055
▁photograph	-14.7076
▁bozo	-14.7077
▁failure	-14.7077
▁menacing	-14.7077
▁rico	-14.7077
▁ringmaster	-14.7077
lunk	-14.7077
▁morty	-14.7077
▁drumstick	-14.7077
history	-14.7107
monkey	-14.7107
elderly	-14.7107
blub	-14.7107
▁bleat	-14.711
lucky	-14.7123
▁protest	-14.713
▁program	-14.7131
▁jersey	-14.7131
▁shepherd	-14.7131
▁maia	-14.7131
▁unfreeze	-14.7131
▁satisfying	-14.7131
▁glen	-14.7139
ette	-14.7143
duck	-14.7161
delicious	-14.7161
joey	-14.7166
▁fragrant	-14.7185
▁aiming	-14.7194
henry	-14.7216
snake	-14.7216
whoever	-14.7217
▁shove	-14.7232
▁headband	-14.724
▁snout	-14.724
▁vain	-14.724
▁hospitality	-14.724
▁blossomed	-14.7243
▁bib	-14.7246
▁stinger	-14.7255
easy	-14.7263
things	-14.7271
oxygen	-14.7271
▁arnold	-14.7295
▁jordan	-14.7295
▁lancelot	-14.7295
▁parachute	-14.7295
▁zach	-14.7295
▁roasting	-14.7297
▁unexpectedly	-14.7303
eating	-14.7303
dangerous	-14.7326
luna	-14.7327
▁classmate	-14.7338
▁triumphant	-14.735
▁infected	-14.735
▁overalls	-14.7351
▁sucking	-14.7353
▁jingled	-14.7353
▁squishing	-14.7354
tiny	-14.7382
▁mitt	-14.7394
▁daffodil	-14.7405
▁fawn	-14.7405
▁feat	-14.7406
▁tipping	-14.7407
serve	-14.7407
step	-14.7414
sweetheart	-14.7438
danny	-14.7438
▁oblige	-14.746
rich	-14.746
▁gerald	-14.7461
▁kirsty	-14.7461
▁vivid	-14.7461
▁barbershop	-14.7461
▁kilos	-14.7461
▁affection	-14.7461
▁tosses	-14.7462
▁choked	-14.7465
▁competed	-14.747
dave	-14.7496
▁jingling	-14.7518
▁qualities	-14.7518
▁wheelchair	-14.7518
▁bucky	-14.7519
▁rainstorm	-14.7519
▁baaed	-14.7531
special	-14.755
paint	-14.755
doggy	-14.7551
uggy	-14.7564
▁glint	-14.7572
▁divide	-14.7573
▁flexibility	-14.7574
▁virtue	-14.7574
▁ahhed	-14.7574
▁wealthier	-14.7574
▁hue	-14.7574
▁rooftop	-14.7575
▁vacuumed	-14.7576
▁kia	-14.7588
▁owie	-14.7627
▁fifth	-14.7631
▁kindergarten	-14.7631
▁mould	-14.7631
▁origami	-14.7631
▁tennis	-14.7631
▁shrugging	-14.7631
▁crunched	-14.7634
▁germ	-14.7635
▁entirely	-14.7639
behaved	-14.7649
pete	-14.7666
▁culture	-14.7678
proving	-14.7688
▁fern	-14.7688
▁intense	-14.7688
▁recital	-14.7688
lab	-14.7695
rawr	-14.772
again	-14.7722
march	-14.7722
▁apologise	-14.7744
▁compartment	-14.7745
▁rascal	-14.7745
▁teresa	-14.7745
▁elise	-14.7745
▁antics	-14.7746
▁cancelled	-14.7746
▁swatted	-14.7746
▁angus	-14.7746
▁bertha	-14.7747
▁stranded	-14.7747
▁disobeying	-14.7749
▁hail	-14.777
block	-14.7779
cheap	-14.7779
▁nuzzle	-14.7792
▁announce	-14.7802
▁filth	-14.7802
▁email	-14.7803
▁hydrated	-14.7803
▁mercy	-14.7803
▁unhealthy	-14.7803
▁marvelous	-14.7803
▁perry	-14.7803
▁gentlemen	-14.7807
▁ensure	-14.7811
shhh	-14.7828
lilly	-14.7838
pack	-14.7841
rrrr	-14.786
▁certificate	-14.7861
▁colony	-14.7861
▁hammock	-14.7861
▁rocco	-14.7861
▁snoozing	-14.7861
▁vibration	-14.7861
▁lucia	-14.7862
yep	-14.7862
▁apply	-14.7862
▁glinted	-14.7862
▁swor	-14.7863
▁rubble	-14.7863
kind	-14.7875
▁fidget	-14.792
▁wriggly	-14.792
▁accurate	-14.792
▁ninety	-14.792
▁shrieked	-14.792
▁dipping	-14.792
▁coward	-14.7924
▁india	-14.7926
▁gracefulness	-14.793
squeak	-14.7955
▁fried	-14.7979
▁seventy	-14.7979
▁reporter	-14.7985
place	-14.7995
▁iris	-14.8009
tasting	-14.8014
▁opponent	-14.8038
▁pollut	-14.8038
▁francis	-14.8038
▁madison	-14.8038
▁unity	-14.8038
▁entry	-14.8038
▁ariel	-14.8065
blast	-14.8074
ignorant	-14.8074
leaf	-14.8074
▁stink	-14.8097
▁elmer	-14.8097
▁extended	-14.8097
▁judging	-14.8097
▁receptionist	-14.8097
▁elena	-14.8097
▁ronny	-14.8098
▁flushed	-14.8099
▁campers	-14.81
▁portal	-14.8101
▁thumping	-14.8104
▁jana	-14.8106
choose	-14.8153
▁dribbling	-14.8157
▁pausing	-14.8157
▁rollercoaster	-14.8157
▁dread	-14.8157
▁marketplace	-14.8158
▁pleasantly	-14.8159
▁invented	-14.8159
wine	-14.8169
fall	-14.8184
fruit	-14.8194
jazz	-14.8194
face	-14.8194
tony	-14.8195
▁engulf	-14.8218
▁waft	-14.8218
▁brett	-14.8218
▁chorus	-14.8218
▁sizzling	-14.8218
▁smack	-14.8218
▁squiggly	-14.8218
▁stooped	-14.8218
▁townsfolk	-14.8218
▁handiwork	-14.8218
crack	-14.8252
sophie	-14.8254
treasure	-14.8254
mint	-14.8256
▁vow	-14.8271
▁somersault	-14.8271
▁taco	-14.8272
▁brat	-14.8274
▁jewellery	-14.8278
▁thirteen	-14.8278
▁traveller	-14.8278
▁chomped	-14.828
▁regretting	-14.8286
oil	-14.83
break	-14.8315
fake	-14.8315
glad	-14.8315
writing	-14.8315
yoga	-14.8315
whose	-14.8316
▁claim	-14.8338
▁drawbridge	-14.8339
▁drenched	-14.8339
▁strumming	-14.8339
▁troy	-14.8339
▁adopted	-14.8341
▁snugly	-14.8342
▁expressing	-14.8345
higher	-14.8377
slide	-14.8377
▁prison	-14.8397
▁doodle	-14.84
▁limeade	-14.84
▁previous	-14.84
▁supervision	-14.84
▁impatience	-14.84
▁advised	-14.8401
▁moldy	-14.8403
▁ren	-14.8439
▁snorkel	-14.8462
▁unpleasant	-14.8462
▁poodle	-14.8462
▁debby	-14.8462
▁poet	-14.8463
▁selected	-14.8463
▁snowstorm	-14.8463
▁puckered	-14.8464
chugga	-14.8476
ose	-14.8494
▁sav	-14.85
sweetie	-14.8501
loop	-14.8511
▁snarl	-14.8522
hurray	-14.8524
▁controller	-14.8524
▁katrina	-14.8524
▁kitties	-14.8524
▁renewed	-14.8524
▁safekeeping	-14.8524
▁vigorously	-14.8524
▁saturn	-14.8524
▁urgent	-14.8524
▁clasped	-14.8525
▁protested	-14.8525
▁shimmery	-14.8526
▁polishes	-14.8533
▁tw	-14.8562
original	-14.8563
before	-14.8563
▁squa	-14.8581
▁multipl	-14.8587
▁clumsily	-14.8587
▁ferocious	-14.8587
▁skeptical	-14.8587
▁slumped	-14.8587
▁sylvester	-14.8587
▁wilson	-14.8587
▁medic	-14.8587
▁reddest	-14.8587
▁grumpily	-14.8587
▁knitted	-14.8587
▁curb	-14.8587
▁postbox	-14.8587
▁america	-14.8589
▁quarrelled	-14.859
▁treatment	-14.8594
food	-14.8626
night	-14.864
▁scowl	-14.8648
▁handcuffs	-14.865
▁storeowner	-14.865
▁untwist	-14.865
▁amaya	-14.865
▁jayden	-14.865
▁snappy	-14.8651
yellow	-14.8689
tonight	-14.8689
zap	-14.869
bring	-14.869
join	-14.869
▁fay	-14.8692
gina	-14.8692
checkmate	-14.8695
press	-14.8696
▁caretaker	-14.8713
▁clumsiness	-14.8713
▁miley	-14.8713
▁sidney	-14.8713
▁triceratops	-14.8713
▁unknowingly	-14.8713
▁wove	-14.8713
▁inner	-14.8713
▁aahed	-14.8714
▁reassuringly	-14.8714
▁attempted	-14.8716
left	-14.8753
stretch	-14.8753
▁possibl	-14.8776
▁clank	-14.8777
▁concentration	-14.8777
▁receipt	-14.8777
▁signature	-14.8777
▁tiffany	-14.8777
▁selection	-14.8777
▁trolley	-14.8777
▁toucan	-14.8779
▁competitor	-14.8841
▁gertrude	-14.8841
▁graham	-14.8841
▁haunted	-14.8841
▁instructed	-14.8841
▁paradise	-14.8841
▁constantly	-14.8841
▁louisa	-14.8842
▁deliveries	-14.8843
▁awoken	-14.8845
animal	-14.8881
millie	-14.8881
important	-14.8882
▁preferences	-14.8905
▁raspberries	-14.8905
▁tentatively	-14.8905
▁version	-14.8905
▁prickles	-14.8905
▁fame	-14.8906
▁dribbled	-14.8907
pull	-14.8946
relax	-14.8946
measure	-14.8946
record	-14.8946
wise	-14.8951
▁lack	-14.8968
▁advisor	-14.897
▁corridor	-14.897
▁bellowed	-14.897
▁scribbling	-14.897
▁summit	-14.897
▁ultimate	-14.897
▁ronnie	-14.897
port	-14.8981
study	-14.9012
brownie	-14.9012
dream	-14.9017
▁blaring	-14.9036
▁casper	-14.9036
▁charley	-14.9036
▁coyote	-14.9036
▁disrespectful	-14.9036
▁fourteen	-14.9036
▁pyramid	-14.9036
▁angelina	-14.9036
▁slinky	-14.9036
▁duo	-14.9036
clack	-14.9036
▁gingerly	-14.9038
spread	-14.9078
▁gag	-14.9093
▁accessory	-14.9101
▁duties	-14.9101
▁erasing	-14.9101
▁junkyard	-14.9101
▁severe	-14.9101
▁drool	-14.9101
▁eddy	-14.9101
▁alleyway	-14.9101
▁claimed	-14.9102
▁bertie	-14.9102
pig	-14.9103
▁tic	-14.9117
fashioned	-14.9126
law	-14.9132
shake	-14.9144
▁assistance	-14.9168
▁navigate	-14.9168
▁tusks	-14.9168
▁mammy	-14.9168
▁occurred	-14.9168
▁discount	-14.9168
▁elated	-14.9168
▁crest	-14.9168
▁gatekeeper	-14.9169
▁cancel	-14.9175
knock	-14.921
ssssssssssssssss	-14.9232
▁galaxy	-14.9234
▁victoria	-14.9234
▁frolicked	-14.9234
▁elmo	-14.9234
▁monk	-14.9235
▁ripping	-14.9235
▁haley	-14.9235
▁drooping	-14.9236
▁vic	-14.9273
swim	-14.9278
poke	-14.9286
▁boar	-14.9299
▁recognise	-14.93
▁reluctant	-14.9301
▁tranquil	-14.9301
▁crazier	-14.9301
▁hydrant	-14.9301
▁sensitive	-14.9301
▁stabbed	-14.9301
▁stevie	-14.9301
▁unattended	-14.9301
▁jacklyn	-14.9301
▁sully	-14.9301
▁witnessed	-14.9303
lantern	-14.9345
maggie	-14.9345
alex	-14.9345
load	-14.9346
ducky	-14.9346
▁inspiring	-14.9369
▁undeterred	-14.9369
▁tiniest	-14.9369
ladies	-14.9413
▁develop	-14.9437
▁iceberg	-14.9437
▁kyla	-14.9437
▁marge	-14.9437
▁sillier	-14.9437
▁archery	-14.9438
▁wisp	-14.9441
cluck	-14.9451
money	-14.9482
▁construct	-14.9505
▁according	-14.9505
▁tambourine	-14.9505
▁jude	-14.9506
▁squirming	-14.9508
accidents	-14.9551
smile	-14.9551
lemon	-14.9551
▁congratulate	-14.9573
▁churn	-14.9574
▁clatter	-14.9574
▁unfroze	-14.9574
▁elegant	-14.9574
woohoo	-14.9575
▁occasionally	-14.9575
▁denny	-14.9575
▁swerved	-14.9575
orange	-14.962
▁intricate	-14.9644
▁jumbo	-14.9644
▁moira	-14.9644
▁schedule	-14.9644
▁sheriff	-14.9644
▁humbly	-14.9644
▁toothache	-14.9644
▁mutt	-14.9662
cious	-14.967
lemonade	-14.969
whiskers	-14.969
skip	-14.9712
▁shatter	-14.9713
▁sulk	-14.9713
▁frolic	-14.9714
▁crannies	-14.9714
▁delilah	-14.9714
▁gilda	-14.9714
▁password	-14.9714
▁gabe	-14.9714
▁shelby	-14.9714
▁marvelled	-14.9714
▁strained	-14.9714
▁initial	-14.9717
through	-14.976
sister	-14.9761
▁pia	-14.9782
▁apologetic	-14.9784
▁frills	-14.9784
▁jellybean	-14.9784
▁jupiter	-14.9784
▁submarine	-14.9784
▁untouched	-14.9784
▁webbed	-14.9784
▁yolk	-14.9784
▁coil	-14.9818
shadow	-14.9831
coffee	-14.9831
harry	-14.9831
▁absorb	-14.9855
▁clive	-14.9855
▁favour	-14.9855
▁olaf	-14.9855
▁petunia	-14.9855
▁president	-14.9855
▁jolt	-14.9855
▁swiftly	-14.9856
cial	-14.9886
merry	-14.9903
thunder	-14.9903
fuel	-14.9903
meet	-14.9908
▁chu	-14.992
▁gracious	-14.9927
▁gummies	-14.9927
▁hesitating	-14.9927
▁joshua	-14.9927
▁spiciest	-14.9927
▁passageway	-14.9927
▁balm	-14.9927
▁cranny	-14.9927
▁inspection	-14.9927
▁hamper	-14.9927
▁aria	-14.994
vanish	-14.9975
▁disgust	-14.9997
▁chandelier	-14.9999
▁clinked	-14.9999
▁harper	-14.9999
▁mural	-14.9999
▁prodded	-14.9999
▁spud	-14.9999
▁friendlier	-14.9999
▁matchstick	-14.9999
▁canada	-14.9999
▁jig	-14.9999
▁danielle	-15
▁archer	-15
▁cookbook	-15
▁blu	-15.0009
▁zeb	-15.0014
rosie	-15.0047
faster	-15.0047
cracker	-15.005
▁embark	-15.0066
▁cavities	-15.0071
▁gluing	-15.0071
▁lazily	-15.0071
▁location	-15.0071
▁messenger	-15.0071
▁miki	-15.0071
▁resourceful	-15.0071
▁salesperson	-15.0071
▁strung	-15.0071
▁barbara	-15.0071
▁triumphantly	-15.0071
▁sharpener	-15.0073
▁wren	-15.0095
brother	-15.012
milo	-15.012
plane	-15.012
▁triumph	-15.0144
▁bargain	-15.0144
▁author	-15.0144
▁backstage	-15.0144
▁complex	-15.0144
▁instructor	-15.0144
▁muffled	-15.0144
▁stammered	-15.0144
▁zeke	-15.0144
▁suds	-15.0144
▁sapling	-15.0144
▁deliveryman	-15.0145
▁cling	-15.0146
crash	-15.0194
moving	-15.0198
▁glare	-15.0216
▁alyssa	-15.0218
▁dejected	-15.0218
▁eleanor	-15.0218
▁gurgle	-15.0218
▁loveliest	-15.0218
▁participate	-15.0218
▁sixteen	-15.0218
▁operator	-15.0218
▁gordon	-15.0218
patience	-15.0268
squirrel	-15.0268
ancient	-15.0268
circus	-15.0268
fox	-15.0268
lou	-15.027
▁ambition	-15.0292
▁awkward	-15.0292
▁brenda	-15.0292
▁clyde	-15.0292
▁disguise	-15.0292
▁nico	-15.0292
▁fangs	-15.0292
▁allison	-15.0292
▁lapping	-15.0293
▁bub	-15.0308
chug	-15.0343
hola	-15.0357
▁clogged	-15.0366
▁energised	-15.0366
▁fertilizer	-15.0366
▁malcolm	-15.0366
▁proposed	-15.0366
▁salute	-15.0366
▁flowerpot	-15.0366
▁peer	-15.0377
▁anxiety	-15.0441
▁doomed	-15.0441
▁floyd	-15.0441
▁grouchy	-15.0441
▁isaac	-15.0441
▁unaware	-15.0441
▁immensely	-15.0442
▁gleamed	-15.0442
▁liv	-15.0458
storm	-15.049
spell	-15.0493
coming	-15.0511
▁experiencing	-15.0517
▁folk	-15.0517
▁gavin	-15.0517
▁width	-15.0517
▁marta	-15.0517
▁chippy	-15.0518
▁earthworm	-15.0518
▁crime	-15.0518
ask	-15.0542
fast	-15.0568
legged	-15.0569
success	-15.057
▁perk	-15.0592
▁unfortunate	-15.0593
▁cavity	-15.0593
▁chelsea	-15.0593
▁misbehaving	-15.0593
▁pelican	-15.0594
▁savanna	-15.0594
▁dusk	-15.0597
squawk	-15.0647
charlie	-15.0647
deliver	-15.0647
kate	-15.0657
▁prance	-15.0669
▁festive	-15.067
▁leslie	-15.067
▁overwhelming	-15.067
▁wreath	-15.067
school	-15.0724
▁unscrew	-15.0747
▁biking	-15.0748
▁bookshelves	-15.0748
▁centimeters	-15.0748
▁shack	-15.0748
▁davy	-15.0748
▁jonah	-15.0749
butterflies	-15.0802
marriage	-15.0802
▁reassure	-15.0825
▁bulldozer	-15.0826
▁cheryl	-15.0826
▁diner	-15.0826
▁saddened	-15.0826
▁len	-15.0827
▁flitte	-15.0827
pear	-15.0859
crazy	-15.0881
popcorn	-15.0881
dress	-15.0881
change	-15.0881
trapped	-15.0895
▁dia	-15.0902
▁circling	-15.0905
▁lounging	-15.0905
▁murmur	-15.0905
▁paulina	-15.0905
▁director	-15.0905
▁impression	-15.0905
▁motionless	-15.0906
▁sap	-15.0927
broccoli	-15.096
wealthy	-15.096
spoil	-15.096
▁genius	-15.0984
▁horsy	-15.0984
▁organization	-15.0984
▁quartz	-15.0984
▁yeast	-15.0984
▁flee	-15.0984
▁tarp	-15.0985
▁veggie	-15.0996
bath	-15.1
▁celeste	-15.1064
▁laziness	-15.1064
▁regardless	-15.1064
▁relative	-15.1064
▁bradley	-15.1064
▁jonas	-15.1064
amazing	-15.1121
feed	-15.1121
write	-15.1121
▁christopher	-15.1145
▁exotic	-15.1145
▁ferry	-15.1145
▁grease	-15.1145
▁lollies	-15.1145
▁maureen	-15.1145
▁pulp	-15.1145
▁robbed	-15.1145
▁sketch	-15.1145
▁omelette	-15.1145
▁bragging	-15.1145
▁hull	-15.1145
▁suki	-15.1145
▁drier	-15.1145
▁jaw	-15.1161
brown	-15.1202
▁reunite	-15.1225
▁astounded	-15.1226
▁denise	-15.1226
▁luxuries	-15.1226
▁pulse	-15.1226
▁stuttered	-15.1226
▁jellie	-15.1226
▁marina	-15.1226
▁array	-15.1226
▁pooch	-15.1255
after	-15.1284
raise	-15.1285
▁descend	-15.1307
▁catherine	-15.1308
▁motivated	-15.1308
▁omar	-15.1308
▁vanessa	-15.1308
▁yu	-15.1317
rude	-15.1318
perhaps	-15.1367
shark	-15.1367
patter	-15.1388
▁combine	-15.1389
▁contagious	-15.1391
▁gang	-15.1391
▁monty	-15.1391
▁nadia	-15.1391
▁trio	-15.1391
▁flynn	-15.1391
▁gazelle	-15.1391
▁moses	-15.1391
▁lair	-15.1391
▁subject	-15.1406
▁splint	-15.1418
speed	-15.1452
guine	-15.1474
▁cassy	-15.1474
▁clump	-15.1474
▁emilia	-15.1474
▁examination	-15.1474
▁gracy	-15.1474
▁observation	-15.1474
▁practical	-15.1474
▁sleek	-15.1474
▁spew	-15.1474
▁yipped	-15.1474
purple	-15.1534
pause	-15.1535
olive	-15.1547
▁dye	-15.155
▁yank	-15.1557
▁blister	-15.1558
▁caboose	-15.1558
▁employee	-15.1558
▁hairdryer	-15.1558
▁ignition	-15.1558
▁lobster	-15.1558
▁nutritious	-15.1558
▁shipwreck	-15.1558
▁women	-15.1558
▁yogi	-15.1558
▁bridle	-15.1558
▁educational	-15.1558
▁canoe	-15.1558
sunny	-15.1619
talk	-15.1621
▁jiggle	-15.1641
▁beckoned	-15.1643
▁exhaustion	-15.1643
▁expand	-15.1643
▁savoured	-15.1643
▁scepter	-15.1643
▁terrific	-15.1643
▁wading	-15.1643
▁royalty	-15.1643
reach	-15.1663
puppy	-15.1705
restore	-15.1705
space	-15.1705
ought	-15.1724
▁surround	-15.1726
▁wick	-15.1728
▁chlo	-15.1728
▁squee	-15.1728
▁accused	-15.1728
▁cottontail	-15.1728
▁downtown	-15.1728
▁pamela	-15.1728
▁pliers	-15.1728
▁predict	-15.1728
▁vibrate	-15.1728
▁walrus	-15.1728
▁wilderness	-15.1728
▁wrestle	-15.1728
jerry	-15.1791
spaghetti	-15.1791
learn	-15.1791
▁cardinal	-15.1815
▁plaster	-15.1815
▁sympathetic	-15.1815
▁abbey	-15.1815
▁agile	-15.1815
▁babbling	-15.1815
▁cleanliness	-15.1815
▁credit	-15.1815
▁shoving	-15.1815
▁gloominess	-15.1815
▁funnel	-15.1815
▁border	-15.1815
▁tig	-15.1815
juice	-15.1878
▁advance	-15.1901
▁blazing	-15.1901
▁claudia	-15.1901
▁dunk	-15.1901
▁false	-15.1901
▁gilbert	-15.1901
▁kennel	-15.1901
▁sputter	-15.1901
▁substance	-15.1901
▁hailey	-15.1902
▁sushi	-15.1902
▁sia	-15.1919
celery	-15.1965
deaf	-15.1965
expensive	-15.1965
▁advertisement	-15.1989
▁deflate	-15.1989
▁robyn	-15.1989
▁unpredictable	-15.1989
▁bookstore	-15.1989
sumed	-15.1989
▁dense	-15.2009
▁abc	-15.201
thump	-15.2054
milly	-15.2061
▁direct	-15.2077
▁emmi	-15.2077
▁jodi	-15.2077
▁asteroid	-15.2078
▁clinking	-15.2078
▁enchanting	-15.2078
▁lingered	-15.2078
▁violinist	-15.2078
▁turnip	-15.2078
▁boastful	-15.21
strike	-15.2143
mingly	-15.2162
▁clenched	-15.2167
▁extinguished	-15.2167
▁furrowed	-15.2167
▁gnaw	-15.2167
▁permanent	-15.2167
▁plot	-15.2167
▁rumour	-15.2167
▁scrumptious	-15.2167
▁thursday	-15.2167
▁venus	-15.2167
▁meteor	-15.2167
▁esme	-15.2167
▁mummies	-15.2167
horse	-15.2232
daughter	-15.2233
exactly	-15.2233
queen	-15.2233
milk	-15.2233
clara	-15.2233
▁lasso	-15.2257
▁marissa	-15.2257
▁paddock	-15.2257
▁rearrange	-15.2257
▁jeannie	-15.2257
east	-15.2307
fetch	-15.2324
reliable	-15.2324
▁neglect	-15.2348
▁breezy	-15.2348
▁cynthia	-15.2348
▁enthralled	-15.2348
▁recharge	-15.2348
▁stocking	-15.2348
▁theodore	-15.2348
▁thus	-15.2348
▁trish	-15.2348
▁eel	-15.2348
▁socket	-15.2348
▁husk	-15.2348
▁grove	-15.235
▁jac	-15.2408
▁barrier	-15.244
▁dimmed	-15.244
▁lawnmower	-15.244
▁orchestra	-15.244
▁rebuilt	-15.244
▁shinning	-15.244
▁sneezy	-15.244
▁stork	-15.244
▁therefore	-15.244
axe	-15.2467
strawberry	-15.2508
▁exclaim	-15.2531
q	-15.2626
